{
  "version": "1.0",
  "truncation": null,
  "padding": null,
  "added_tokens": [
    {
      "id": 0,
      "content": "<|endoftext|>",
      "single_word": false,
      "lstrip": false,
      "rstrip": false,
      "normalized": false,
      "special": true
    }
  ],
  "normalizer": null,
  "pre_tokenizer": {
    "type": "ByteLevel",
    "add_prefix_space": true,
    "trim_offsets": true,
    "use_regex": true
  },
  "post_processor": {
    "type": "ByteLevel",
    "add_prefix_space": true,
    "trim_offsets": true,
    "use_regex": true
  },
  "decoder": null,
  "model": {
    "type": "BPE",
    "dropout": null,
    "unk_token": null,
    "continuing_subword_prefix": null,
    "end_of_word_suffix": null,
    "fuse_unk": false,
    "byte_fallback": false,
    "ignore_merges": false,
    "vocab": {
      "<|endoftext|>": 0,
      "!": 1,
      "\"": 2,
      "#": 3,
      "$": 4,
      "%": 5,
      "&": 6,
      "'": 7,
      "(": 8,
      ")": 9,
      "*": 10,
      ",": 11,
      "-": 12,
      ".": 13,
      "/": 14,
      "0": 15,
      "1": 16,
      "2": 17,
      "3": 18,
      "4": 19,
      "5": 20,
      "6": 21,
      "7": 22,
      "8": 23,
      "9": 24,
      ":": 25,
      ";": 26,
      "?": 27,
      "A": 28,
      "B": 29,
      "C": 30,
      "D": 31,
      "E": 32,
      "F": 33,
      "G": 34,
      "H": 35,
      "I": 36,
      "J": 37,
      "K": 38,
      "L": 39,
      "M": 40,
      "N": 41,
      "O": 42,
      "P": 43,
      "Q": 44,
      "R": 45,
      "S": 46,
      "T": 47,
      "U": 48,
      "V": 49,
      "W": 50,
      "X": 51,
      "Y": 52,
      "Z": 53,
      "[": 54,
      "]": 55,
      "`": 56,
      "a": 57,
      "b": 58,
      "c": 59,
      "d": 60,
      "e": 61,
      "f": 62,
      "g": 63,
      "h": 64,
      "i": 65,
      "j": 66,
      "k": 67,
      "l": 68,
      "m": 69,
      "n": 70,
      "o": 71,
      "p": 72,
      "q": 73,
      "r": 74,
      "s": 75,
      "t": 76,
      "u": 77,
      "v": 78,
      "w": 79,
      "x": 80,
      "y": 81,
      "z": 82,
      "{": 83,
      "}": 84,
      "¢": 85,
      "¤": 86,
      "¥": 87,
      "©": 88,
      "ª": 89,
      "®": 90,
      "°": 91,
      "±": 92,
      "µ": 93,
      "¶": 94,
      "¾": 95,
      "¿": 96,
      "Â": 97,
      "Ã": 98,
      "Ä": 99,
      "Å": 100,
      "à": 101,
      "â": 102,
      "Ċ": 103,
      "č": 104,
      "Ġ": 105,
      "Ģ": 106,
      "ģ": 107,
      "Ĥ": 108,
      "ĥ": 109,
      "Ħ": 110,
      "Ĩ": 111,
      "į": 112,
      "ĵ": 113,
      "Ķ": 114,
      "ĺ": 115,
      "Ļ": 116,
      "Ľ": 117,
      "ľ": 118,
      "Ŀ": 119,
      "ł": 120,
      "th": 121,
      "Ġth": 122,
      "Ġa": 123,
      "in": 124,
      "Ġthe": 125,
      "Ġo": 126,
      "re": 127,
      "Ġs": 128,
      "Ġw": 129,
      "nd": 130,
      "Ġof": 131,
      "er": 132,
      "at": 133,
      "is": 134,
      "Ġh": 135,
      "ed": 136,
      "Ġb": 137,
      "ing": 138,
      "on": 139,
      "es": 140,
      "en": 141,
      "Ġf": 142,
      "ou": 143,
      "Ġt": 144,
      "Ġand": 145,
      "ar": 146,
      "Ġc": 147,
      "Ġm": 148,
      "an": 149,
      "or": 150,
      "as": 151,
      "Ġd": 152,
      "ll": 153,
      "Ġp": 154,
      "Ġin": 155,
      "Ġto": 156,
      "Ġwi": 157,
      "it": 158,
      "ra": 159,
      "Ġbe": 160,
      "le": 161,
      "Ġe": 162,
      "Ġthat": 163,
      "ce": 164,
      "ro": 165,
      "se": 166,
      "Ġwith": 167,
      "Ġg": 168,
      "Ġl": 169,
      "ri": 170,
      "Th": 171,
      "Ġwh": 172,
      "Ġis": 173,
      "Ġn": 174,
      "Ġre": 175,
      "ĠTh": 176,
      "al": 177,
      "gh": 178,
      "ĠA": 179,
      "st": 180,
      "ch": 181,
      "ay": 182,
      "av": 183,
      "ow": 184,
      "ion": 185,
      "ĠI": 186,
      "im": 187,
      "ct": 188,
      "Ġu": 189,
      "ld": 190,
      "ad": 191,
      "ĠO": 192,
      "Ġon": 193,
      "om": 194,
      "ir": 195,
      "ver": 196,
      "Ġby": 197,
      "Ġk": 198,
      "Ġhe": 199,
      "ĠB": 200,
      "ĠS": 201,
      "Ġhis": 202,
      "id": 203,
      "ent": 204,
      "ly": 205,
      "am": 206,
      "Ġas": 207,
      "ght": 208,
      "Ġfor": 209,
      "Ġsh": 210,
      "ish": 211,
      "and": 212,
      "ot": 213,
      "od": 214,
      "ere": 215,
      "ak": 216,
      "ur": 217,
      "Ġall": 218,
      "ess": 219,
      "ain": 220,
      "ut": 221,
      "ther": 222,
      "ĠK": 223,
      "ic": 224,
      "est": 225,
      "Ġsa": 226,
      "ĠD": 227,
      "iv": 228,
      "Ġst": 229,
      "Ġthou": 230,
      "Ġde": 231,
      "ĠP": 232,
      "reat": 233,
      "us": 234,
      "Ġking": 235,
      "ĠThe": 236,
      "Ġv": 237,
      "ul": 238,
      "Ġar": 239,
      "Ġson": 240,
      "if": 241,
      "Ġwho": 242,
      "Ġ(": 243,
      "nt": 244,
      "Ġcon": 245,
      "Ġse": 246,
      "Ġsu": 247,
      "Ġan": 248,
      "ĠAnd": 249,
      "ore": 250,
      "Ġare": 251,
      "Ġat": 252,
      "res": 253,
      "ight": 254,
      "ous": 255,
      "Ġal": 256,
      "ĠV": 257,
      "Ġme": 258,
      "Ġit": 259,
      "qu": 260,
      "Ġhim": 261,
      "rom": 262,
      "Ġhav": 263,
      "Ġthis": 264,
      "ers": 265,
      "ds": 266,
      "ts": 267,
      "pe": 268,
      "Ġone": 269,
      "ose": 270,
      "all": 271,
      "Ġfrom": 272,
      "ĠH": 273,
      "Ġor": 274,
      "Ġwor": 275,
      "Ġnot": 276,
      "ru": 277,
      "'s": 278,
      "ble": 279,
      "ter": 280,
      "ge": 281,
      "Ġwas": 282,
      "Ġ'": 283,
      "Ġpro": 284,
      "ik": 285,
      "Ġtheir": 286,
      "Ġsaid": 287,
      "ire": 288,
      "Ġwe": 289,
      "ana": 290,
      "na": 291,
      "Ġex": 292,
      "ap": 293,
      "Ġgreat": 294,
      "ould": 295,
      "our": 296,
      "Ġwhi": 297,
      "ĠBh": 298,
      "Ġthy": 299,
      "Ġy": 300,
      "Ġthose": 301,
      "Ġmy": 302,
      "ĠM": 303,
      "Ġcom": 304,
      "ud": 305,
      "sel": 306,
      "il": 307,
      "ĠR": 308,
      "so": 309,
      "Ġch": 310,
      "hm": 311,
      "ity": 312,
      "ation": 313,
      "Ġhave": 314,
      "sh": 315,
      "ame": 316,
      "ant": 317,
      "Ġen": 318,
      "ies": 319,
      "rahm": 320,
      "ike": 321,
      "ast": 322,
      "ect": 323,
      "att": 324,
      "ence": 325,
      "Ġfo": 326,
      "et": 327,
      "ĠBrahm": 328,
      "Ġthem": 329,
      "ĠW": 330,
      "el": 331,
      "Ġher": 332,
      "ost": 333,
      "um": 334,
      "ill": 335,
      "Ġthee": 336,
      "ong": 337,
      "Ġwhich": 338,
      "Ġ\"": 339,
      "Ġup": 340,
      "ĠY": 341,
      "âĢ": 342,
      "ath": 343,
      "Ġdis": 344,
      "Ġman": 345,
      "Ġlike": 346,
      "Ġother": 347,
      "old": 348,
      "very": 349,
      "ind": 350,
      "Ġthere": 351,
      "os": 352,
      "Ġthen": 353,
      "Ġalso": 354,
      "ever": 355,
      "ck": 356,
      "la": 357,
      "tain": 358,
      "ive": 359,
      "Ġshould": 360,
      "led": 361,
      "Ġob": 362,
      ".'": 363,
      "self": 364,
      "attle": 365,
      "Ġhad": 366,
      "Ġbec": 367,
      "ig": 368,
      "ard": 369,
      "Ġac": 370,
      "row": 371,
      "Ġdes": 372,
      "Ġdo": 373,
      "ell": 374,
      "Ġad": 375,
      "Ġbattle": 376,
      "Ġcar": 377,
      "Ġam": 378,
      "Ġun": 379,
      "ĠG": 380,
      "Ġra": 381,
      "ach": 382,
      "now": 383,
      "out": 384,
      "Ġsp": 385,
      "ven": 386,
      "ear": 387,
      "ie": 388,
      "Ġthey": 389,
      "ered": 390,
      "way": 391,
      "ood": 392,
      "pp": 393,
      "ful": 394,
      "Ġwill": 395,
      "Ġthese": 396,
      "Ġr": 397,
      "ome": 398,
      "Ġreg": 399,
      "Ġwere": 400,
      "nto": 401,
      "Ġbeen": 402,
      "em": 403,
      "ok": 404,
      "Ġint": 405,
      "Ġso": 406,
      "Ġaf": 407,
      "cri": 408,
      "Ġsl": 409,
      "able": 410,
      "Ġmight": 411,
      "Ġle": 412,
      "red": 413,
      "arth": 414,
      "Ġunto": 415,
      "Ġab": 416,
      "Ġfore": 417,
      "ci": 418,
      "sed": 419,
      "Ġmen": 420,
      "pt": 421,
      "nder": 422,
      "rou": 423,
      "ued": 424,
      "ine": 425,
      "war": 426,
      "Ġact": 427,
      "ist": 428,
      "Ġag": 429,
      "ya": 430,
      "eed": 431,
      "ĠN": 432,
      "ons": 433,
      "art": 434,
      "ĠPand": 435,
      "ors": 436,
      "ated": 437,
      "ions": 438,
      "pl": 439,
      "ust": 440,
      "ree": 441,
      "igh": 442,
      "Ġknow": 443,
      "Ġbeh": 444,
      "Ġwhat": 445,
      "ate": 446,
      "ces": 447,
      "ness": 448,
      "ake": 449,
      "Ġart": 450,
      "fore": 451,
      "ure": 452,
      "ĠHe": 453,
      "ata": 454,
      "ve": 455,
      "Ġper": 456,
      "Ġres": 457,
      "ord": 458,
      "un": 459,
      "ceed": 460,
      "ĠWh": 461,
      "Ġhaving": 462,
      "ĠE": 463,
      "Ġend": 464,
      "Ġno": 465,
      "au": 466,
      "Ġmighty": 467,
      "Ġwords": 468,
      "Ġhigh": 469,
      "Ġtw": 470,
      "Ġco": 471,
      "Ġfa": 472,
      "ial": 473,
      "--": 474,
      "Ġcreat": 475,
      "per": 476,
      "less": 477,
      "Ġpers": 478,
      "Ġoff": 479,
      "ira": 480,
      "wn": 481,
      "ice": 482,
      "ans": 483,
      "ures": 484,
      "ment": 485,
      "ount": 486,
      "af": 487,
      "Ġri": 488,
      "hish": 489,
      "crif": 490,
      "most": 491,
      "ied": 492,
      "ĠL": 493,
      "ull": 494,
      "Ġupon": 495,
      "ha": 496,
      "Ġarm": 497,
      "oss": 498,
      "one": 499,
      "rish": 500,
      "Ġworld": 501,
      "ings": 502,
      "Ġevery": 503,
      "ance": 504,
      "Ġbo": 505,
      "iz": 506,
      "ced": 507,
      "for": 508,
      "Ġhow": 509,
      "iver": 510,
      "Ġeven": 511,
      "ĠInd": 512,
      "Ġim": 513,
      "Ġhimself": 514,
      "Âł": 515,
      "ÃĤ": 516,
      "Ġforemost": 517,
      "va": 518,
      "Ġj": 519,
      "ĠC": 520,
      "Ġgod": 521,
      "rie": 522,
      "Ġro": 523,
      "Ġhas": 524,
      "Ġarrow": 525,
      "ade": 526,
      "ĠT": 527,
      "ier": 528,
      "ma": 529,
      "Ġacc": 530,
      "ĠDh": 531,
      "ĠBhar": 532,
      "Ġcont": 533,
      "una": 534,
      "Ġany": 535,
      "ĠBrahman": 536,
      "ga": 537,
      "Ġwhen": 538,
      "Ġsacrif": 539,
      "Ġcan": 540,
      "ious": 541,
      "Ġshall": 542,
      "orn": 543,
      "rit": 544,
      "ens": 545,
      "Ġqu": 546,
      "aying": 547,
      "aya": 548,
      "thira": 549,
      "ict": 550,
      ".,": 551,
      "Ġbow": 552,
      "ue": 553,
      "Ġamong": 554,
      "other": 555,
      "udhish": 556,
      "udhishthira": 557,
      "Ġsin": 558,
      "ple": 559,
      "ĠThen": 560,
      "Ġform": 561,
      "mb": 562,
      "Ġinto": 563,
      "Ġown": 564,
      "Ġsuch": 565,
      "Ġmon": 566,
      "Ġlif": 567,
      "Ġspe": 568,
      "Ġagain": 569,
      "ved": 570,
      "ĠThou": 571,
      "ossess": 572,
      "Ġbod": 573,
      "ound": 574,
      "ĠIt": 575,
      "ĠAr": 576,
      "Ġatt": 577,
      "ĠâĢ": 578,
      "Ġlife": 579,
      "ah": 580,
      "ands": 581,
      "ĠF": 582,
      "Ġtim": 583,
      "ph": 584,
      ").": 585,
      "ise": 586,
      "Ġele": 587,
      "own": 588,
      "Ġearth": 589,
      "Ġcl": 590,
      "Ġhero": 591,
      "alled": 592,
      "arch": 593,
      "Ġlo": 594,
      "Ġrace": 595,
      "ject": 596,
      "rin": 597,
      "Ġbeg": 598,
      "Ġmany": 599,
      "Ġnever": 600,
      "Ġyou": 601,
      "riors": 602,
      "Ġwithout": 603,
      "Ġshaf": 604,
      "eth": 605,
      "ass": 606,
      "ĠAs": 607,
      "ĠBhim": 608,
      "Ġdest": 609,
      "Ġafter": 610,
      "ants": 611,
      "avas": 612,
      "Ġarrows": 613,
      "Ġunder": 614,
      "ron": 615,
      "Ġsons": 616,
      "),": 617,
      "oul": 618,
      "juna": 619,
      "Ġbeing": 620,
      "Ġpossess": 621,
      "irt": 622,
      "Ġdown": 623,
      "ĠBharata": 624,
      "Ġtru": 625,
      "Ġadd": 626,
      "Ġits": 627,
      "ĠâĢľ": 628,
      "ĠIn": 629,
      "urn": 630,
      "ities": 631,
      "ara": 632,
      "ĠYudhishthira": 633,
      "Ġaway": 634,
      "ted": 635,
      "ĠRish": 636,
      "Ġbro": 637,
      "Ġover": 638,
      "Ġhath": 639,
      "ways": 640,
      "Ġmay": 641,
      "Ġwar": 642,
      "arna": 643,
      "iverse": 644,
      "Ġtwo": 645,
      "Ġhowever": 646,
      "ith": 647,
      "aras": 648,
      "up": 649,
      "nds": 650,
      "oy": 651,
      "Ġinc": 652,
      "Ġthus": 653,
      "Ġcalled": 654,
      "Ġvery": 655,
      "ged": 656,
      "Ġalways": 657,
      "ĠArjuna": 658,
      "olding": 659,
      "Ġshafts": 660,
      "ĠJ": 661,
      "ĠBrahmanas": 662,
      "cept": 663,
      "ĠU": 664,
      "ĠThat": 665,
      "ol": 666,
      "Ġmonarch": 667,
      "fl": 668,
      "Ġpre": 669,
      "jaya": 670,
      "Ġdesire": 671,
      "ressed": 672,
      "Ġbecame": 673,
      "Ġday": 674,
      "ĠBrahmana": 675,
      "Ġweap": 676,
      "rona": 677,
      "Ġgood": 678,
      "ĠThere": 679,
      "med": 680,
      "estial": 681,
      "Ġcel": 682,
      "ished": 683,
      "Ġtime": 684,
      "Ġus": 685,
      "ĠDrona": 686,
      "Ġeleph": 687,
      "ep": 688,
      "Ġcreatures": 689,
      "ile": 690,
      "cc": 691,
      "ves": 692,
      "Ġcelestial": 693,
      "een": 694,
      "ng": 695,
      "ury": 696,
      "Ġsub": 697,
      "ort": 698,
      "rough": 699,
      "Ġendued": 700,
      "ava": 701,
      "Ġapp": 702,
      "illed": 703,
      "Ġgods": 704,
      "aut": 705,
      "erg": 706,
      "Ġvirt": 707,
      "Ġind": 708,
      "Ġbody": 709,
      "Ġsee": 710,
      "tha": 711,
      "thing": 712,
      "Ġfe": 713,
      "eous": 714,
      "Ġord": 715,
      "Ġacts": 716,
      "Ġperson": 717,
      "ĠKarna": 718,
      "ĠKur": 719,
      "are": 720,
      "wards": 721,
      "Ġent": 722,
      "Ġhead": 723,
      "ult": 724,
      "aving": 725,
      "Ġthree": 726,
      "Ġfl": 727,
      "Ġne": 728,
      "ations": 729,
      ",--": 730,
      "hana": 731,
      "cked": 732,
      "ura": 733,
      "Ġgr": 734,
      "Ġfoes": 735,
      "Ġfir": 736,
      "aksh": 737,
      "tect": 738,
      "Ġpra": 739,
      "âĢĿ": 740,
      "Ġobtain": 741,
      "pect": 742,
      "ĠPandavas": 743,
      "ip": 744,
      "Ġwat": 745,
      "Ġenerg": 746,
      "Ġey": 747,
      "ction": 748,
      "ress": 749,
      "alth": 750,
      "Ġboth": 751,
      "Ġpossessed": 752,
      "erv": 753,
      "und": 754,
      "ĠOn": 755,
      "Ġenergy": 756,
      "Ġattain": 757,
      "ala": 758,
      "ances": 759,
      "Ġour": 760,
      "ĠBe": 761,
      "yas": 762,
      "Ġdev": 763,
      "ĠĠ": 764,
      "Ġif": 765,
      "Ġmade": 766,
      "ices": 767,
      "Ġviz": 768,
      "vers": 769,
      "sequ": 770,
      "man": 771,
      "ama": 772,
      "Ġpla": 773,
      "Ġasce": 774,
      "Ġout": 775,
      "aking": 776,
      "Ġill": 777,
      "ited": 778,
      "Ġcontin": 779,
      "app": 780,
      "Ġright": 781,
      "Ġbegan": 782,
      "Ġbest": 783,
      "dom": 784,
      "Ġthrough": 785,
      "Ġnow": 786,
      "ag": 787,
      "Ġslain": 788,
      "ush": 789,
      "Ġprotect": 790,
      "Ġfire": 791,
      "Ġregard": 792,
      "ena": 793,
      "Ġgra": 794,
      "anjaya": 795,
      "Ġdut": 796,
      "ower": 797,
      "Ġbut": 798,
      "ĠPandu": 799,
      "Ġgo": 800,
      "Ġmer": 801,
      "Ġsome": 802,
      "Ġonly": 803,
      "op": 804,
      "Ġthous": 805,
      "ild": 806,
      "me": 807,
      "Ġbl": 808,
      "Ġaddressed": 809,
      "Ġacqu": 810,
      "odhana": 811,
      "Ġsw": 812,
      "ayana": 813,
      "Ġconsequ": 814,
      "ledge": 815,
      "Ġmind": 816,
      "ory": 817,
      "Ġhast": 818,
      "ĠKrish": 819,
      "Ġcons": 820,
      "Ġwealth": 821,
      "ady": 822,
      "ati": 823,
      "ĠVed": 824,
      "Ġfoll": 825,
      "Ġanother": 826,
      "Ġpier": 827,
      "Ġkin": 828,
      "Ġsaying": 829,
      "Ġwould": 830,
      "semb": 831,
      "Ġbeaut": 832,
      "Ġbecome": 833,
      "ide": 834,
      "Ġtowards": 835,
      "Ġwhile": 836,
      "ally": 837,
      "ily": 838,
      "tra": 839,
      "Ġsteed": 840,
      "Ġfear": 841,
      "its": 842,
      "ave": 843,
      "Ġperfor": 844,
      "Ġbefore": 845,
      "ĠKrishna": 846,
      "Ġwell": 847,
      "Ġprin": 848,
      "Ġrel": 849,
      "Ġkings": 850,
      "Ġhapp": 851,
      "Ġlook": 852,
      "flict": 853,
      "Ġheart": 854,
      "Ġlord": 855,
      "Ġheav": 856,
      "Ġslay": 857,
      "Ġbrother": 858,
      "Ġpres": 859,
      "Ġweapons": 860,
      "Ġmeans": 861,
      "amp": 862,
      "uryodhana": 863,
      "Ġconsequence": 864,
      "Ġbir": 865,
      "ĠSu": 866,
      "Ġsoul": 867,
      "Ġpe": 868,
      "Ġstre": 869,
      "ĠBhima": 870,
      "Ġgif": 871,
      "Ġfollow": 872,
      "rath": 873,
      "ite": 874,
      "ghter": 875,
      "ace": 876,
      "Ġgold": 877,
      "Ġproceed": 878,
      "Ġsteeds": 879,
      "bh": 880,
      "ĠThey": 881,
      "ĠKsh": 882,
      "iving": 883,
      "arn": 884,
      "Ġcomp": 885,
      "Ġcontinued": 886,
      "tic": 887,
      "ank": 888,
      "Ġobject": 889,
      "Ġtherefore": 890,
      "ry": 891,
      "Ġwrath": 892,
      "ertain": 893,
      "Ġcomm": 894,
      "ents": 895,
      "Ġbet": 896,
      "ting": 897,
      "ras": 898,
      "Ġfrie": 899,
      "apable": 900,
      "atri": 901,
      "Ġchild": 902,
      "ĠDuryodhana": 903,
      "Ġequ": 904,
      "ĠThis": 905,
      "Ġaccom": 906,
      "Ġter": 907,
      "Ġabout": 908,
      "ark": 909,
      "Ġpersons": 910,
      "Ġwarriors": 911,
      "Ġgrie": 912,
      "ĠIf": 913,
      "iff": 914,
      "Ġcome": 915,
      "Ġeach": 916,
      "Ġascetic": 917,
      "Ġeyes": 918,
      "Ġknowledge": 919,
      "ber": 920,
      "Ġrespect": 921,
      "ĠIndeed": 922,
      "Ġhere": 923,
      "Ġothers": 924,
      "ick": 925,
      "Ġmount": 926,
      "arash": 927,
      "Ġrighteous": 928,
      "ingly": 929,
      "Ġmore": 930,
      "Ġelephants": 931,
      "Ġdel": 932,
      "co": 933,
      "ais": 934,
      "Ġdevot": 935,
      "ield": 936,
      "Ġprow": 937,
      "Ġhear": 938,
      "Ġprowess": 939,
      "fe": 940,
      "ang": 941,
      "Ġwhose": 942,
      "Ġbull": 943,
      "Ġlong": 944,
      "ring": 945,
      "Ġref": 946,
      "of": 947,
      "vas": 948,
      "Ġworsh": 949,
      "ĠIndra": 950,
      "oin": 951,
      "Ġut": 952,
      "arge": 953,
      "ab": 954,
      "Ġpen": 955,
      "cell": 956,
      "Ġfilled": 957,
      "Ġcame": 958,
      "Ġsens": 959,
      "Ġret": 960,
      "rious": 961,
      "ĠBhish": 962,
      "als": 963,
      "ĠVas": 964,
      "ĠBhishma": 965,
      "Ġfru": 966,
      "akes": 967,
      "ĠGand": 968,
      "aka": 969,
      "âĢĻ": 970,
      "atter": 971,
      "Ġpl": 972,
      "Ġpierced": 973,
      "The": 974,
      "Ġhund": 975,
      "Ġ1": 976,
      "ither": 977,
      "Ġway": 978,
      "ĠWhen": 979,
      "arashtra": 980,
      "ling": 981,
      "Ġrep": 982,
      "akshas": 983,
      "rib": 984,
      "Ġrul": 985,
      "ĠCh": 986,
      "ourse": 987,
      "cellent": 988,
      "Ġtr": 989,
      "Ġtre": 990,
      "ief": 991,
      "ĠVedas": 992,
      "lf": 993,
      "Ġfirst": 994,
      "ible": 995,
      "Ġsm": 996,
      "iss": 997,
      "wh": 998,
      "Ġhost": 999,
      "ix": 1000,
      "Ġmo": 1001,
      "ĠHaving": 1002,
      "Ġarms": 1003,
      "Ġshe": 1004,
      "Ġbla": 1005,
      "Ġwater": 1006,
      "the": 1007,
      "ari": 1008,
      "Ġdid": 1009,
      "Ġdiff": 1010,
      "Ġfall": 1011,
      "Ġdeath": 1012,
      "ĠBeh": 1013,
      "Ġsenses": 1014,
      "ouled": 1015,
      "Ġass": 1016,
      "ĠKshatri": 1017,
      "ail": 1018,
      "Ġintell": 1019,
      "fect": 1020,
      "Ġrem": 1021,
      "Ġafflict": 1022,
      "ritarashtra": 1023,
      "Ġobs": 1024,
      "Ġbecom": 1025,
      "Ġmountain": 1026,
      "Ġheaven": 1027,
      "Ġkinds": 1028,
      "souled": 1029,
      "Ġnor": 1030,
      "!'": 1031,
      "Ġfood": 1032,
      "leas": 1033,
      "roy": 1034,
      "Ġyear": 1035,
      "unt": 1036,
      "anding": 1037,
      "iness": 1038,
      "ired": 1039,
      "nded": 1040,
      "Ġillust": 1041,
      "Ġpract": 1042,
      "Ġdiv": 1043,
      "Ġexcellent": 1044,
      "Ġlarge": 1045,
      "ĠWith": 1046,
      "Ġdiverse": 1047,
      "Ġsacrifice": 1048,
      "ĠOne": 1049,
      "Ġmerit": 1050,
      "ified": 1051,
      "Ġsc": 1052,
      "ink": 1053,
      "ives": 1054,
      "Ġillustrious": 1055,
      "asena": 1056,
      "ĠSat": 1057,
      "ada": 1058,
      "Ġagainst": 1059,
      "ained": 1060,
      "oud": 1061,
      "ars": 1062,
      "ĠWhat": 1063,
      ".'\"": 1064,
      "ĠRishis": 1065,
      "Ġfour": 1066,
      "Ġborn": 1067,
      "Ġduties": 1068,
      "selves": 1069,
      "Ġsacrifices": 1070,
      "ipp": 1071,
      "ause": 1072,
      "Ġfier": 1073,
      "Ġintellig": 1074,
      "ack": 1075,
      "ute": 1076,
      "Ġheard": 1077,
      "anqu": 1078,
      "Ġset": 1079,
      "ĠBrahma": 1080,
      "uk": 1081,
      "ats": 1082,
      "Ġfight": 1083,
      "Ġunderst": 1084,
      "Ġdeities": 1085,
      "ampayana": 1086,
      "Ġbeholding": 1087,
      "aj": 1088,
      "ition": 1089,
      "ween": 1090,
      "Ġcut": 1091,
      "Ġplace": 1092,
      "he": 1093,
      "Ġhum": 1094,
      "rain": 1095,
      "aus": 1096,
      "Ġsay": 1097,
      "Ġever": 1098,
      "Ġvow": 1099,
      "ĠParth": 1100,
      "iful": 1101,
      "ĠRishi": 1102,
      "age": 1103,
      "ating": 1104,
      "nal": 1105,
      "du": 1106,
      "air": 1107,
      "Ġchief": 1108,
      "Ġdep": 1109,
      "ude": 1110,
      "ĠDe": 1111,
      "Ġarmy": 1112,
      "Ġimp": 1113,
      "Ġwom": 1114,
      "Ġname": 1115,
      "eld": 1116,
      "Ġgrief": 1117,
      "Ġseen": 1118,
      "warriors": 1119,
      "ĠRakshas": 1120,
      "ese": 1121,
      "ni": 1122,
      "ments": 1123,
      "ĠBy": 1124,
      "Ġself": 1125,
      "ĠMah": 1126,
      "cing": 1127,
      "Ġsk": 1128,
      "Ġvirtue": 1129,
      "Ġbetween": 1130,
      "Ġpower": 1131,
      "rived": 1132,
      "Ġcould": 1133,
      "Ġpur": 1134,
      "Ġwhere": 1135,
      "cceed": 1136,
      "ener": 1137,
      "Ġfive": 1138,
      "Ġpleas": 1139,
      "Ġtruth": 1140,
      "ior": 1141,
      "Ġtro": 1142,
      "eer": 1143,
      "Ġdist": 1144,
      "owers": 1145,
      "irous": 1146,
      "Ġsucceed": 1147,
      "rior": 1148,
      "ĠMad": 1149,
      "ĠDhritarashtra": 1150,
      "Ġyour": 1151,
      "ign": 1152,
      "Ġonce": 1153,
      "ary": 1154,
      "aisampayana": 1155,
      "Ġbecomes": 1156,
      "Ġfull": 1157,
      "aken": 1158,
      "Ġexceed": 1159,
      "ĠKuru": 1160,
      "Ġterri": 1161,
      "uous": 1162,
      "Ġnum": 1163,
      "ruction": 1164,
      "Ġfierce": 1165,
      "ĠDo": 1166,
      "ins": 1167,
      "Ġhands": 1168,
      "Ġtrans": 1169,
      "ops": 1170,
      "Ġbeautiful": 1171,
      "Ġappro": 1172,
      "right": 1173,
      "oub": 1174,
      "Ġsle": 1175,
      "ĠGandh": 1176,
      "anch": 1177,
      "Ġenc": 1178,
      "vere": 1179,
      "Ġforest": 1180,
      "uch": 1181,
      "Ġinv": 1182,
      "Ġsuper": 1183,
      "Ġthan": 1184,
      "Ġdestroy": 1185,
      "ngth": 1186,
      "Ġbirth": 1187,
      "Ġwish": 1188,
      "Ġtake": 1189,
      "Ġrec": 1190,
      "Ġocc": 1191,
      "Ġfell": 1192,
      "ĠThose": 1193,
      "Ġfather": 1194,
      "Ġgl": 1195,
      "Ġseem": 1196,
      "Ġenga": 1197,
      "unti": 1198,
      "Ġsame": 1199,
      "Ġprecept": 1200,
      "Ġwo": 1201,
      "Ġask": 1202,
      "Ġstrength": 1203,
      "joy": 1204,
      "Ġcond": 1205,
      "isten": 1206,
      "Ġinst": 1207,
      "Ġgrat": 1208,
      "Ġcov": 1209,
      "Ġtroops": 1210,
      "Ġhand": 1211,
      "Ġthousand": 1212,
      "ĠPartha": 1213,
      "Ġuniverse": 1214,
      "Ġpart": 1215,
      "ĠKunti": 1216,
      "men": 1217,
      "Ġdoub": 1218,
      "cred": 1219,
      "Ġrush": 1220,
      "Ġrest": 1221,
      "Ġresemb": 1222,
      "de": 1223,
      "ode": 1224,
      "Ġenjoy": 1225,
      "Ġblaz": 1226,
      "Ġkingdom": 1227,
      "Ġgive": 1228,
      "Ġperform": 1229,
      "ĠBhimasena": 1230,
      "Ġye": 1231,
      "Ġheroes": 1232,
      "Ġaccompl": 1233,
      "any": 1234,
      "Ġef": 1235,
      "Ġcars": 1236,
      "Ġdau": 1237,
      "Ġap": 1238,
      "ering": 1239,
      "Ġho": 1240,
      "Ġregarded": 1241,
      "gether": 1242,
      "Ġthink": 1243,
      "Ġdesirous": 1244,
      "Ġfield": 1245,
      "Ġsacred": 1246,
      "Ġexceedingly": 1247,
      "Ġlearn": 1248,
      "Ġte": 1249,
      "Ġwhom": 1250,
      "Ġcaus": 1251,
      "earing": 1252,
      "Ġpri": 1253,
      "Ġsur": 1254,
      "Ġwhole": 1255,
      "Ġknown": 1256,
      "Ġgu": 1257,
      "adeva": 1258,
      "Ġreturn": 1259,
      "pet": 1260,
      "Ġafflicted": 1261,
      "ards": 1262,
      "ĠAll": 1263,
      "Ġyears": 1264,
      "Ġbel": 1265,
      "Ġsun": 1266,
      ".âĢĿ": 1267,
      "Ġpenances": 1268,
      "les": 1269,
      "Ġconvers": 1270,
      "ĠPra": 1271,
      "Ġproceeded": 1272,
      "Ġtogether": 1273,
      "Ġstru": 1274,
      "aid": 1275,
      "ual": 1276,
      "Ġterrible": 1277,
      "Ġthemselves": 1278,
      "Ġproper": 1279,
      "lau": 1280,
      "ipped": 1281,
      "ĠBeholding": 1282,
      "xt": 1283,
      "Ġold": 1284,
      "Ġsn": 1285,
      "ason": 1286,
      "ires": 1287,
      "Ġruler": 1288,
      "ides": 1289,
      "Ġconst": 1290,
      "ĠNar": 1291,
      "Ġworlds": 1292,
      "Ġhundred": 1293,
      "Ġcast": 1294,
      "Ġtook": 1295,
      "Ġquick": 1296,
      "ret": 1297,
      "ĠThus": 1298,
      "Ġthings": 1299,
      "Ġaccord": 1300,
      "Ġcelestials": 1301,
      "ys": 1302,
      "Ġ2": 1303,
      "Ġcertain": 1304,
      "Ġdevoted": 1305,
      "Ġkind": 1306,
      "ĠKurus": 1307,
      "ĠBut": 1308,
      "ouse": 1309,
      ".\"": 1310,
      "Ġwife": 1311,
      "rig": 1312,
      "nding": 1313,
      "ached": 1314,
      "ared": 1315,
      "Ġpu": 1316,
      "Ġlooked": 1317,
      "Ġsire": 1318,
      "Ġev": 1319,
      "not": 1320,
      "Ġengaged": 1321,
      "Ġcou": 1322,
      "iven": 1323,
      "Ġbrothers": 1324,
      "Ġgifts": 1325,
      "reme": 1326,
      "ites": 1327,
      "ternal": 1328,
      "Ġjoy": 1329,
      "ĠYo": 1330,
      "Ġtig": 1331,
      "Ġmother": 1332,
      "Ġdisc": 1333,
      "ase": 1334,
      "Ġdestruction": 1335,
      "ove": 1336,
      "uct": 1337,
      "ised": 1338,
      "ĠFor": 1339,
      "Ġdaughter": 1340,
      "Ġhon": 1341,
      "Ġobserv": 1342,
      "Ġlight": 1343,
      "Ġtell": 1344,
      "Ġback": 1345,
      "Ġdoubt": 1346,
      "Wh": 1347,
      "fter": 1348,
      "Ġpreceptor": 1349,
      "ĠAt": 1350,
      "ren": 1351,
      "Ġbear": 1352,
      "ft": 1353,
      "Ġfoe": 1354,
      "ĠEarth": 1355,
      "Ġloud": 1356,
      "ccess": 1357,
      "Ġslau": 1358,
      "ully": 1359,
      "Ġver": 1360,
      "aster": 1361,
      "ched": 1362,
      "Ġstand": 1363,
      "ality": 1364,
      "Ġdays": 1365,
      "Ġhappiness": 1366,
      "ying": 1367,
      "Ġlive": 1368,
      "ading": 1369,
      "Ġsight": 1370,
      "Ġsubject": 1371,
      "reed": 1372,
      "Ġanim": 1373,
      "Ġintelligence": 1374,
      "ived": 1375,
      "Ġregions": 1376,
      "Ġconversant": 1377,
      "Ġcourse": 1378,
      "Ġwood": 1379,
      "icial": 1380,
      "Ġwicked": 1381,
      "Ġvanqu": 1382,
      "Ġdelight": 1383,
      "Ġseek": 1384,
      "Ġmake": 1385,
      "ĠSoul": 1386,
      "Ġcle": 1387,
      "ĠSaty": 1388,
      "pic": 1389,
      "Ġexist": 1390,
      "ĠLet": 1391,
      "Ġrelig": 1392,
      "Ġnight": 1393,
      "Ġquickly": 1394,
      "cript": 1395,
      "Ġlet": 1396,
      "Ġattrib": 1397,
      "Ġbless": 1398,
      "Ġstruck": 1399,
      "Ġequal": 1400,
      "rated": 1401,
      "day": 1402,
      "Ġten": 1403,
      "Ġeverything": 1404,
      "Ġobjects": 1405,
      "utes": 1406,
      "Ġorder": 1407,
      "orrow": 1408,
      "Ġvar": 1409,
      "Ġdec": 1410,
      "has": 1411,
      "sper": 1412,
      "isdom": 1413,
      "dd": 1414,
      "ator": 1415,
      "Ġcapable": 1416,
      "cip": 1417,
      "Ġprince": 1418,
      "ĠSak": 1419,
      "ika": 1420,
      "ĠSh": 1421,
      "Ġcannot": 1422,
      "ĠDhan": 1423,
      "Ġsuperior": 1424,
      "ened": 1425,
      "iva": 1426,
      "Ġencount": 1427,
      "fully": 1428,
      "Ġdoes": 1429,
      "Ġsoon": 1430,
      "iser": 1431,
      "Ġfriends": 1432,
      "bs": 1433,
      "Ġwisdom": 1434,
      "Ġpass": 1435,
      "ouds": 1436,
      "ali": 1437,
      "Ġspeed": 1438,
      "Ġlatter": 1439,
      "Ġclouds": 1440,
      "wa": 1441,
      "ĠAg": 1442,
      "Ġexpl": 1443,
      "Ġexc": 1444,
      "Ġwithin": 1445,
      "Ġkine": 1446,
      "aki": 1447,
      "Ġconduct": 1448,
      "ty": 1449,
      "Ġbre": 1450,
      "Ġalone": 1451,
      "Ġbehold": 1452,
      "Ġblazing": 1453,
      "Ġvict": 1454,
      "sperity": 1455,
      "ense": 1456,
      "Ġmuch": 1457,
      "ĠDhananjaya": 1458,
      "Ġsix": 1459,
      "Ġappe": 1460,
      "Ġvirtuous": 1461,
      "Ġhuman": 1462,
      "ning": 1463,
      "te": 1464,
      "Ġthousands": 1465,
      "Ġwent": 1466,
      "Ġdw": 1467,
      "Ġpoin": 1468,
      "Ġinf": 1469,
      "Ġliving": 1470,
      "Ġnat": 1471,
      "cious": 1472,
      "ech": 1473,
      "Ġforce": 1474,
      "Ġach": 1475,
      "Ġbeings": 1476,
      "tle": 1477,
      "alas": 1478,
      "Ġscript": 1479,
      "Ġang": 1480,
      "Ġaccording": 1481,
      "uge": 1482,
      "ĠEven": 1483,
      "Ġmyself": 1484,
      "Ġtaking": 1485,
      "Ġdire": 1486,
      "Ġsuccess": 1487,
      "nce": 1488,
      "Ġregion": 1489,
      "rik": 1490,
      "Ġelephant": 1491,
      "sw": 1492,
      "Ġmust": 1493,
      "Ġslayer": 1494,
      "sp": 1495,
      "Ġfra": 1496,
      "ruct": 1497,
      "Ġconc": 1498,
      "Ġutt": 1499,
      "Ġrushed": 1500,
      "Ġlit": 1501,
      "Ġexp": 1502,
      "Ġcomple": 1503,
      "?'": 1504,
      "Ġfriend": 1505,
      "Ġce": 1506,
      "Ġmid": 1507,
      "ople": 1508,
      "sol": 1509,
      "Ġcur": 1510,
      "Ġobtained": 1511,
      "ĠThese": 1512,
      "Ġunderstanding": 1513,
      "Ġcause": 1514,
      "Ġcovered": 1515,
      "Ġachie": 1516,
      "Ġprosperity": 1517,
      "ours": 1518,
      "Ġadv": 1519,
      "Ġhighly": 1520,
      "uring": 1521,
      "Ġem": 1522,
      "Ġnam": 1523,
      "eds": 1524,
      "oth": 1525,
      "Ġthough": 1526,
      "Ġrage": 1527,
      "ris": 1528,
      "Ġenem": 1529,
      "ib": 1530,
      "ough": 1531,
      "Ġcheer": 1532,
      "Ġpresent": 1533,
      "Ġgave": 1534,
      "Ġfruits": 1535,
      "Ġamongst": 1536,
      "Ġru": 1537,
      "ention": 1538,
      "Ġspeech": 1539,
      "ff": 1540,
      "aura": 1541,
      "Ġsinful": 1542,
      "Ġcommand": 1543,
      "ndsire": 1544,
      "rong": 1545,
      "Ġcount": 1546,
      "Vaisampayana": 1547,
      "Ġrites": 1548,
      "ĠKshatriya": 1549,
      "Ġbeheld": 1550,
      "Ġthine": 1551,
      "Ġhus": 1552,
      "Ġabode": 1553,
      "Ġsorrow": 1554,
      "Ġlast": 1555,
      "Ġwonder": 1556,
      "lend": 1557,
      "Ġperformed": 1558,
      "Ġvarious": 1559,
      "icult": 1560,
      "Ġprodu": 1561,
      "Ġthought": 1562,
      "Ġsplend": 1563,
      "ms": 1564,
      "Ġchildren": 1565,
      "Ġscriptures": 1566,
      "ef": 1567,
      "ving": 1568,
      "iting": 1569,
      "ical": 1570,
      "ĠPri": 1571,
      "udeva": 1572,
      "armed": 1573,
      "Ġspok": 1574,
      "Ġnext": 1575,
      "Ġnumber": 1576,
      "ought": 1577,
      "Ġhusb": 1578,
      "under": 1579,
      "ament": 1580,
      "Ġdifficult": 1581,
      "Ġspot": 1582,
      "Ġside": 1583,
      "Ġassemb": 1584,
      "Ġansw": 1585,
      "Ġdone": 1586,
      "ĠHis": 1587,
      "Ġrepe": 1588,
      "cean": 1589,
      "ĠSom": 1590,
      "Ġchast": 1591,
      "ĠSatyaki": 1592,
      "yal": 1593,
      "Ġeternal": 1594,
      "ĠAn": 1595,
      "Ġtiger": 1596,
      "Ġfirm": 1597,
      "ĠLord": 1598,
      "Ġpeople": 1599,
      "plied": 1600,
      "Ġdra": 1601,
      "Ġsupp": 1602,
      "ĠVrish": 1603,
      "Ġhighest": 1604,
      "Ġincapable": 1605,
      "Ġwa": 1606,
      "oured": 1607,
      "Ġdeprived": 1608,
      "Ġuttered": 1609,
      "Ġtoday": 1610,
      "Ġspeak": 1611,
      "Ġlead": 1612,
      "Ġel": 1613,
      "Ġable": 1614,
      "Ġhouse": 1615,
      "ĠAfter": 1616,
      "ĠGandhar": 1617,
      "Ġgrou": 1618,
      "anas": 1619,
      "uta": 1620,
      "eng": 1621,
      "Ġworship": 1622,
      "Ġaid": 1623,
      "Ġagree": 1624,
      "Ġdecked": 1625,
      "Ġgratified": 1626,
      "Ġdwell": 1627,
      "Ġlot": 1628,
      "Ġstill": 1629,
      "Ġcomb": 1630,
      "ĠTherefore": 1631,
      "Ġindeed": 1632,
      "Ġtaken": 1633,
      "Ġblessed": 1634,
      "ert": 1635,
      "ac": 1636,
      "ĠPanch": 1637,
      "Ġconf": 1638,
      "Ġimm": 1639,
      "Ġ3": 1640,
      "Ġevil": 1641,
      "Ġpo": 1642,
      "Ġroyal": 1643,
      "Ġslaughter": 1644,
      "Ġgiven": 1645,
      "usion": 1646,
      "Ġbodies": 1647,
      "Ġyet": 1648,
      "udra": 1649,
      "ĠWe": 1650,
      "Ġweapon": 1651,
      "ĠSup": 1652,
      "ĠJan": 1653,
      "Ġsplendour": 1654,
      "ĠAl": 1655,
      "Ġones": 1656,
      "ĠPar": 1657,
      "ater": 1658,
      "mancip": 1659,
      "Ġwise": 1660,
      "Ġblood": 1661,
      "Ġjust": 1662,
      "umna": 1663,
      "ner": 1664,
      "read": 1665,
      "uras": 1666,
      "Ġrighteousness": 1667,
      "Ġvows": 1668,
      "with": 1669,
      "Ġbra": 1670,
      "arma": 1671,
      "Ġcity": 1672,
      "rought": 1673,
      "ĠKaura": 1674,
      "Ġmean": 1675,
      "Ġwind": 1676,
      "Ġitself": 1677,
      "Ġsing": 1678,
      "Ġben": 1679,
      "esh": 1680,
      "ĠVid": 1681,
      "Ġserv": 1682,
      "Ġattributes": 1683,
      "ks": 1684,
      "Ġsound": 1685,
      "Ġaccept": 1686,
      "to": 1687,
      "Ġlotus": 1688,
      "ĠSanjaya": 1689,
      "Ġdiffere": 1690,
      "enerate": 1691,
      "ĠKshatriyas": 1692,
      "Ġgift": 1693,
      "ising": 1694,
      "Ġline": 1695,
      "Ġforth": 1696,
      "Ġseven": 1697,
      "Ġfel": 1698,
      "Ġrece": 1699,
      "Ġthyself": 1700,
      "Ġaccomplish": 1701,
      "Ġfreed": 1702,
      "Ġregenerate": 1703,
      "picious": 1704,
      "Ġpeace": 1705,
      "Ġpure": 1706,
      "adra": 1707,
      "uni": 1708,
      "Ġwoods": 1709,
      "Ġreplied": 1710,
      "orned": 1711,
      "FN": 1712,
      "Ġ{": 1713,
      "Ġcaused": 1714,
      "Ġentered": 1715,
      "Ġasked": 1716,
      "nu": 1717,
      "anga": 1718,
      "Ġsurrou": 1719,
      "Ġinj": 1720,
      "ains": 1721,
      "Ġsol": 1722,
      "mm": 1723,
      "ĠRama": 1724,
      "cess": 1725,
      "cond": 1726,
      "Ġtou": 1727,
      "Ġslaying": 1728,
      "warrior": 1729,
      "Ġvictory": 1730,
      "Ġrepeated": 1731,
      "Ġcare": 1732,
      "itute": 1733,
      "Ġstud": 1734,
      "risht": 1735,
      "Ġheroic": 1736,
      "irit": 1737,
      "Ġdeep": 1738,
      "Ġmin": 1739,
      "Ġmine": 1740,
      "orse": 1741,
      "ased": 1742,
      "Ġmountains": 1743,
      "Ġbrought": 1744,
      "ĠGod": 1745,
      "Ġanimals": 1746,
      "Ġutter": 1747,
      "ariot": 1748,
      "Ġreason": 1749,
      "Ġdisp": 1750,
      "Ġaffect": 1751,
      "ne": 1752,
      "pa": 1753,
      "lect": 1754,
      "Ġvis": 1755,
      "Ġsuff": 1756,
      "ĠHim": 1757,
      "Ġworshipped": 1758,
      "ĠSun": 1759,
      "Ġdirect": 1760,
      "pan": 1761,
      "Ġemb": 1762,
      "ĠHow": 1763,
      "Ġsense": 1764,
      "uru": 1765,
      "rown": 1766,
      "Ġchariot": 1767,
      "ĠPritha": 1768,
      "Ġtrees": 1769,
      "ĠYama": 1770,
      "ĠVasudeva": 1771,
      "Ġpuiss": 1772,
      "ĠSupreme": 1773,
      "Ġi": 1774,
      "ressing": 1775,
      "Ġshow": 1776,
      "Ġduty": 1777,
      "Ġlim": 1778,
      "ĠRakshasas": 1779,
      "Bhish": 1780,
      "Bhishma": 1781,
      "Ġcal": 1782,
      "Ġsaw": 1783,
      "lt": 1784,
      "ety": 1785,
      "ndent": 1786,
      "Ġmaking": 1787,
      "Ġfree": 1788,
      "Ġdu": 1789,
      "ĠRakshasa": 1790,
      "Ġlittle": 1791,
      "ates": 1792,
      "ishnu": 1793,
      "Ġalong": 1794,
      "Ġword": 1795,
      "Ġstood": 1796,
      "Ġdri": 1797,
      "Ġstate": 1798,
      "erve": 1799,
      "min": 1800,
      "Ġwaters": 1801,
      "assed": 1802,
      "Ġbeauty": 1803,
      "ĠYoga": 1804,
      "Ġfame": 1805,
      "Ġused": 1806,
      "Ġtrue": 1807,
      "hand": 1808,
      "Ġcow": 1809,
      "Ġpath": 1810,
      "anu": 1811,
      "ĠSal": 1812,
      "Ġsecond": 1813,
      "Ġdisci": 1814,
      "Ġocean": 1815,
      "Ġadorned": 1816,
      "Ġthunder": 1817,
      "adi": 1818,
      "uspicious": 1819,
      "Ġmidst": 1820,
      "by": 1821,
      "Ġaw": 1822,
      "ĠMy": 1823,
      "Ġcompass": 1824,
      "Ġbenef": 1825,
      "Ġnature": 1826,
      "Ġcombat": 1827,
      "su": 1828,
      "Ġlearned": 1829,
      "Ġground": 1830,
      "ather": 1831,
      "Ġwhe": 1832,
      "Ġregards": 1833,
      "Ġhearing": 1834,
      "Ġhusband": 1835,
      "Ġir": 1836,
      "alt": 1837,
      "ĠHearing": 1838,
      "ently": 1839,
      "andon": 1840,
      "ĠDhrisht": 1841,
      "ĠKnow": 1842,
      "Ġoccas": 1843,
      "ĠGandharvas": 1844,
      "Ġsides": 1845,
      "Ġturn": 1846,
      "Ġph": 1847,
      "Ġbehove": 1848,
      "Ġcreated": 1849,
      "Ġformer": 1850,
      "ĠAsuras": 1851,
      "Ġwomen": 1852,
      "Ġbelong": 1853,
      "ular": 1854,
      "Ġfoot": 1855,
      "Ġagreeable": 1856,
      "ists": 1857,
      "Ġtold": 1858,
      "Ġencounter": 1859,
      "avi": 1860,
      "ĠDra": 1861,
      "ĠPit": 1862,
      "Ġnothing": 1863,
      "Ġaust": 1864,
      "ale": 1865,
      "mancipation": 1866,
      "oked": 1867,
      "Ġduly": 1868,
      "ash": 1869,
      "Ġsacrificial": 1870,
      "ĠSam": 1871,
      "ĠMadh": 1872,
      "Ġcoun": 1873,
      "Ġsil": 1874,
      "ĠAd": 1875,
      "Ġauspicious": 1876,
      "Ġattach": 1877,
      "outh": 1878,
      "Ġmace": 1879,
      "reg": 1880,
      "Ġdue": 1881,
      "bed": 1882,
      "Ġbehoveth": 1883,
      "acrif": 1884,
      "ros": 1885,
      "Ġlisten": 1886,
      "og": 1887,
      "Ġsake": 1888,
      "Ġswe": 1889,
      "ĠSuta": 1890,
      "Ġseeing": 1891,
      "adyumna": 1892,
      "Ġdark": 1893,
      "Ġke": 1894,
      "els": 1895,
      "ĠPandava": 1896,
      "Ġelse": 1897,
      "ula": 1898,
      "ivers": 1899,
      "Ġtra": 1900,
      "Ġordin": 1901,
      "Ġdost": 1902,
      "Ġpurp": 1903,
      "Ġdepe": 1904,
      "ich": 1905,
      "rink": 1906,
      "Ġfeet": 1907,
      "yasa": 1908,
      "Ġresembling": 1909,
      "ĠAm": 1910,
      "ĠYu": 1911,
      "ured": 1912,
      "itation": 1913,
      "Ġabst": 1914,
      "Ġforms": 1915,
      "Ġwarrior": 1916,
      "ĠPitris": 1917,
      "Ġindic": 1918,
      "nect": 1919,
      "Ġfam": 1920,
      "upadi": 1921,
      "ward": 1922,
      "Ġentire": 1923,
      "Ġvanquished": 1924,
      "Ġlives": 1925,
      "Ġsci": 1926,
      "Ġfruit": 1927,
      "Ġmost": 1928,
      "fulg": 1929,
      "upon": 1930,
      "par": 1931,
      "Ġbring": 1932,
      "arp": 1933,
      "ries": 1934,
      "Ġleft": 1935,
      "ested": 1936,
      "akas": 1937,
      "rat": 1938,
      "Ġshowers": 1939,
      "Ġseemed": 1940,
      "Ġabandon": 1941,
      "ĠSakra": 1942,
      "Ġbath": 1943,
      "Ġcomment": 1944,
      "ility": 1945,
      "Ġhostile": 1946,
      "panied": 1947,
      "atas": 1948,
      "Ġlady": 1949,
      "Ġshot": 1950,
      "Ġsurrounded": 1951,
      "bile": 1952,
      "Ġrepeatedly": 1953,
      "ĠKri": 1954,
      "head": 1955,
      "Ġopp": 1956,
      "Ġhorse": 1957,
      "Ġwhite": 1958,
      "Ġsnakes": 1959,
      "yed": 1960,
      "Ġwilt": 1961,
      "alk": 1962,
      "icity": 1963,
      "Ġclean": 1964,
      "eh": 1965,
      "ging": 1966,
      "Ġmiser": 1967,
      "Ġmaster": 1968,
      "ĠNarayana": 1969,
      "rings": 1970,
      "anc": 1971,
      "Ġinter": 1972,
      "Ġdivine": 1973,
      "Ġprof": 1974,
      "urable": 1975,
      "Ġeffulg": 1976,
      "itra": 1977,
      "Ġsharp": 1978,
      "Ġpresence": 1979,
      "ĠDraupadi": 1980,
      "Ġtree": 1981,
      "reds": 1982,
      "Ġassum": 1983,
      "ĠAgni": 1984,
      "Ġop": 1985,
      "Ġcor": 1986,
      "ided": 1987,
      "usha": 1988,
      "Ġdifferent": 1989,
      "iers": 1990,
      "Ġcontro": 1991,
      "Ġsim": 1992,
      "Ġlaid": 1993,
      "Ġconnect": 1994,
      "mit": 1995,
      "ises": 1996,
      "Ġrob": 1997,
      "Ġshalt": 1998,
      "Ġquest": 1999,
      "Ġwret": 2000,
      "ime": 2001,
      "Ġes": 2002,
      "Ġsat": 2003,
      "Ġapproach": 2004,
      "Ġwonderful": 2005,
      "Yudhishthira": 2006,
      "ism": 2007,
      "Ġorn": 2008,
      "Ġslew": 2009,
      "ĠDhrishtadyumna": 2010,
      "ĠKripa": 2011,
      "Ġsingle": 2012,
      "Ġrevere": 2013,
      "Ġshouldst": 2014,
      "Ġeye": 2015,
      "ĠGanga": 2016,
      "irc": 2017,
      "ples": 2018,
      "Ġverse": 2019,
      "Ġput": 2020,
      "Ġsumm": 2021,
      "Ġdoing": 2022,
      "Ġattained": 2023,
      "Ġrestrain": 2024,
      "ini": 2025,
      "enty": 2026,
      "Ġhundreds": 2027,
      "Ġresembled": 2028,
      "Ġaffection": 2029,
      "ĠOf": 2030,
      "ĠFrom": 2031,
      "Ġhur": 2032,
      "Ġnone": 2033,
      "adh": 2034,
      "ident": 2035,
      "ĠVishnu": 2036,
      "Ġburn": 2037,
      "Ġtir": 2038,
      "ĠKes": 2039,
      "Ġtruly": 2040,
      "Ġunc": 2041,
      "Ġyoung": 2042,
      "ĠUn": 2043,
      "osed": 2044,
      "thy": 2045,
      "Ġear": 2046,
      "Ġdeeds": 2047,
      "Ġholy": 2048,
      "ready": 2049,
      "Ġvo": 2050,
      "Ġaccompanied": 2051,
      "ĠVidura": 2052,
      "Ġkeen": 2053,
      "Ġface": 2054,
      "asts": 2055,
      "Ġpain": 2056,
      "Ġcertainly": 2057,
      "ten": 2058,
      "Ġresol": 2059,
      "uted": 2060,
      "Ġsage": 2061,
      "ĠMahadeva": 2062,
      "act": 2063,
      "ords": 2064,
      "fied": 2065,
      "arm": 2066,
      "Ġconqu": 2067,
      "Ġtoo": 2068,
      ",--'": 2069,
      "Ġpleasure": 2070,
      "Ġtouch": 2071,
      "Ġeat": 2072,
      "Ġarmed": 2073,
      "Ġconsum": 2074,
      "Ġwel": 2075,
      "Ġspirit": 2076,
      "Ġwoman": 2077,
      "rest": 2078,
      "iring": 2079,
      "ĠVar": 2080,
      "Ġheads": 2081,
      "Ġfallen": 2082,
      "Ġmil": 2083,
      "Ġwield": 2084,
      "ĠSome": 2085,
      "Ġaround": 2086,
      "elf": 2087,
      "Ġsleep": 2088,
      "Ġreligion": 2089,
      "Ġsweet": 2090,
      "born": 2091,
      "lled": 2092,
      "iding": 2093,
      "ange": 2094,
      "Sanjaya": 2095,
      "Ġsure": 2096,
      "Ġanything": 2097,
      "aviour": 2098,
      "Ġmatter": 2099,
      "ĠVri": 2100,
      "Ġsins": 2101,
      "Ġprotection": 2102,
      "ee": 2103,
      "Ġprotected": 2104,
      "ps": 2105,
      "Ġgolden": 2106,
      "Ġmoon": 2107,
      "Ġuna": 2108,
      "Ġmeet": 2109,
      "Ġnamed": 2110,
      "idd": 2111,
      "Ġcirc": 2112,
      "Ġdestroyed": 2113,
      "oon": 2114,
      "ific": 2115,
      "ÂĢ": 2116,
      "Ã¢": 2117,
      "that": 2118,
      "rect": 2119,
      "Ġboon": 2120,
      "Ġacquired": 2121,
      "ÂĢÂ": 2122,
      "anks": 2123,
      "ilar": 2124,
      "Ġbrave": 2125,
      "opt": 2126,
      "Ġur": 2127,
      "ution": 2128,
      "Ġhearts": 2129,
      "Ġbrok": 2130,
      "Ġkins": 2131,
      "ined": 2132,
      "ĠPro": 2133,
      "Ġbehaviour": 2134,
      "Ġdead": 2135,
      "Ġtimes": 2136,
      "Ġcommentator": 2137,
      "Ġpassed": 2138,
      "Ġgar": 2139,
      "anyu": 2140,
      "az": 2141,
      "wise": 2142,
      "aff": 2143,
      "itude": 2144,
      "ĠVir": 2145,
      "Ġsmil": 2146,
      "Ġmod": 2147,
      "aves": 2148,
      "Ġroar": 2149,
      "Ġincl": 2150,
      "Ġflowers": 2151,
      "Ġoccasion": 2152,
      "Ġwin": 2153,
      "Ġcr": 2154,
      "Ġmed": 2155,
      "Ġext": 2156,
      "Ġaccomplished": 2157,
      "indh": 2158,
      "ĠAsw": 2159,
      "ĠSah": 2160,
      "ests": 2161,
      "ĠEmancipation": 2162,
      "Ġtri": 2163,
      "ored": 2164,
      "Ġfollowing": 2165,
      "Ġgone": 2166,
      "ainted": 2167,
      "ĠKrit": 2168,
      "Ġalready": 2169,
      "Ġaddressing": 2170,
      "ĠWithout": 2171,
      "Ġsubjects": 2172,
      "Ġign": 2173,
      "Ġgiving": 2174,
      "ĠDan": 2175,
      "ems": 2176,
      "end": 2177,
      "ĠThy": 2178,
      "ĠGra": 2179,
      ",âĢĿ": 2180,
      "ĠKauravas": 2181,
      "Ġav": 2182,
      "Ġmom": 2183,
      "Ġexcited": 2184,
      "lying": 2185,
      "Ġaccount": 2186,
      "Ġsucceeds": 2187,
      "Ġdrink": 2188,
      "cks": 2189,
      "ĠNarada": 2190,
      "asana": 2191,
      "Ġdefe": 2192,
      "Ġgrant": 2193,
      "ement": 2194,
      "meas": 2195,
      "ĠDev": 2196,
      "Ġadopt": 2197,
      "Ġbur": 2198,
      "Ġdeity": 2199,
      "asa": 2200,
      "leb": 2201,
      "ĠSuch": 2202,
      "rigin": 2203,
      "Ġanswered": 2204,
      "Ġthir": 2205,
      "Ġreal": 2206,
      "Ġrefuge": 2207,
      "Ġcomes": 2208,
      "Ġgrace": 2209,
      "Ġexplained": 2210,
      "Ġfled": 2211,
      "arman": 2212,
      "Ġmouth": 2213,
      "Ġseiz": 2214,
      "Ġroot": 2215,
      "flu": 2216,
      "Ġattains": 2217,
      "Ġscience": 2218,
      "kin": 2219,
      "Ġdom": 2220,
      "Ġstrik": 2221,
      "ĠVaisampayana": 2222,
      "Ġceleb": 2223,
      "Ġfort": 2224,
      "Ġriver": 2225,
      "though": 2226,
      "Ġorigin": 2227,
      "ented": 2228,
      "Ġfeat": 2229,
      "Ġsnake": 2230,
      "Ġsit": 2231,
      "atth": 2232,
      "eswar": 2233,
      "Ġpoints": 2234,
      "Ġmail": 2235,
      "Ġreading": 2236,
      "Ġwork": 2237,
      "ship": 2238,
      "Ġbirds": 2239,
      "ught": 2240,
      "Ġfright": 2241,
      "Ġtem": 2242,
      "Ġmar": 2243,
      "Ġli": 2244,
      "isting": 2245,
      "Ġfault": 2246,
      "measurable": 2247,
      "Ġwand": 2248,
      "Ġmor": 2249,
      "Ġforg": 2250,
      "ciousness": 2251,
      "Ġanx": 2252,
      "Ġbearing": 2253,
      "ĠKesava": 2254,
      "aw": 2255,
      "ues": 2256,
      "Ġoffer": 2257,
      "Ġkinsmen": 2258,
      "atta": 2259,
      "Ġfollowed": 2260,
      "Ġdivis": 2261,
      "Ġlearning": 2262,
      "Ġeffulgence": 2263,
      "arts": 2264,
      "ĠSank": 2265,
      "rup": 2266,
      "Ġimmeasurable": 2267,
      "Ġreligious": 2268,
      "be": 2269,
      "orses": 2270,
      "erved": 2271,
      "Ġdoth": 2272,
      "ets": 2273,
      "Ġstrong": 2274,
      "ately": 2275,
      "Ġresc": 2276,
      "Ġfail": 2277,
      "Ġorders": 2278,
      "adha": 2279,
      "Ġdeer": 2280,
      "appe": 2281,
      "antras": 2282,
      "Ġsky": 2283,
      "Ġlimbs": 2284,
      "regard": 2285,
      "Ġbecause": 2286,
      "nown": 2287,
      "ĠSahadeva": 2288,
      "Ġhair": 2289,
      "Ġhorses": 2290,
      "Ġeither": 2291,
      "ĠVis": 2292,
      "avour": 2293,
      "akula": 2294,
      "Ġcreature": 2295,
      "Ġoffered": 2296,
      "Ġpuissant": 2297,
      "ta": 2298,
      "aments": 2299,
      "roud": 2300,
      "Ġduring": 2301,
      "Ġreco": 2302,
      "osition": 2303,
      "Ġapproached": 2304,
      "owed": 2305,
      "adw": 2306,
      "Ġdear": 2307,
      "ĠPur": 2308,
      "ĠListen": 2309,
      "ĠTime": 2310,
      "Ġgener": 2311,
      "ung": 2312,
      "gr": 2313,
      "ross": 2314,
      "Ġmoment": 2315,
      "uri": 2316,
      "Ġaction": 2317,
      "dden": 2318,
      "ape": 2319,
      "mn": 2320,
      "Ġred": 2321,
      "iew": 2322,
      "ixed": 2323,
      "Ġcleansed": 2324,
      "dess": 2325,
      "Ġwhy": 2326,
      "ĠSt": 2327,
      "Ġwretch": 2328,
      "Ġsal": 2329,
      "Ġcombatants": 2330,
      "Ġmass": 2331,
      "ital": 2332,
      "anda": 2333,
      "Ġmeas": 2334,
      "Ġoccur": 2335,
      "Ġseems": 2336,
      "Ġpartic": 2337,
      "Ġadvan": 2338,
      "Ġenemy": 2339,
      "Thou": 2340,
      "ifest": 2341,
      "uded": 2342,
      "Ġsince": 2343,
      "Ġdistress": 2344,
      "Ġenemies": 2345,
      "Ġet": 2346,
      "Ġstra": 2347,
      "ĠBhrig": 2348,
      "Ġqual": 2349,
      "Ġmerits": 2350,
      "ences": 2351,
      "Ġfin": 2352,
      "ici": 2353,
      "Ġcharioteer": 2354,
      "cible": 2355,
      "Ġsinless": 2356,
      "ani": 2357,
      "Ġeld": 2358,
      "Ġvast": 2359,
      "Ġlost": 2360,
      "ĠRe": 2361,
      "Ġgrandsire": 2362,
      "Ġpowerful": 2363,
      "gress": 2364,
      "Ġfind": 2365,
      "Ġfound": 2366,
      "ults": 2367,
      "Ġascetics": 2368,
      "ug": 2369,
      "Ġport": 2370,
      "Ġinsp": 2371,
      "Ġearn": 2372,
      "Ġfeel": 2373,
      "Ġfirmament": 2374,
      "Ġmisery": 2375,
      "erable": 2376,
      "ĠUt": 2377,
      "Ġcontrol": 2378,
      "rupada": 2379,
      "Ġneed": 2380,
      "ruth": 2381,
      "Ġvanquish": 2382,
      "Thus": 2383,
      "Ġglad": 2384,
      "ĠVirata": 2385,
      "Ġetc": 2386,
      "Ġhill": 2387,
      "Ġhel": 2388,
      "cient": 2389,
      "ĠCreat": 2390,
      "Ġrelat": 2391,
      "Ġstandard": 2392,
      "ĠGrandsire": 2393,
      "ex": 2394,
      "Ġpride": 2395,
      "Ġcru": 2396,
      "imes": 2397,
      "ĠTell": 2398,
      "Ġspoken": 2399,
      "Ġeight": 2400,
      "Ġuse": 2401,
      "Ġperfect": 2402,
      "Ġresple": 2403,
      "Ġindul": 2404,
      "Ġauster": 2405,
      "Ġornaments": 2406,
      "ison": 2407,
      "Ġperi": 2408,
      "Ġcomplete": 2409,
      "Then": 2410,
      "Ġcoming": 2411,
      "Ġrid": 2412,
      "Ġexistence": 2413,
      "incible": 2414,
      "Ġobl": 2415,
      "Ġdiscourse": 2416,
      "Ġfelicity": 2417,
      "Ġhuge": 2418,
      "ĠAbh": 2419,
      "Ġdispl": 2420,
      "ĠWho": 2421,
      "Ġnew": 2422,
      "Ġage": 2423,
      "ĠDrupada": 2424,
      "Ġignor": 2425,
      "Ġlion": 2426,
      "This": 2427,
      "Ġsovere": 2428,
      "ĠNakula": 2429,
      "Ġgrands": 2430,
      "Ġanger": 2431,
      "ission": 2432,
      "Ġsolic": 2433,
      "Ġguru": 2434,
      "ĠDanavas": 2435,
      "Ġwives": 2436,
      "ĠDest": 2437,
      "Ġseated": 2438,
      "antly": 2439,
      "Ġperiod": 2440,
      "ern": 2441,
      "Ġstat": 2442,
      "Ġsec": 2443,
      "ĠUp": 2444,
      "Ġlooking": 2445,
      "Ġhonour": 2446,
      "ĠBehold": 2447,
      "ĠPanchalas": 2448,
      "Ġausterities": 2449,
      "iety": 2450,
      "sels": 2451,
      "Ġpractice": 2452,
      "ĠSoma": 2453,
      "Ġmilk": 2454,
      "Ġbr": 2455,
      "ĠWhy": 2456,
      "Ġinvincible": 2457,
      "Having": 2458,
      "ĠBeng": 2459,
      "Ġdisappe": 2460,
      "Ġrays": 2461,
      "Ġreflect": 2462,
      "Ġquestion": 2463,
      "Ġdread": 2464,
      "Ġview": 2465,
      "Ġdecla": 2466,
      "ĠBhrigu": 2467,
      "krit": 2468,
      "isted": 2469,
      "Ġplaced": 2470,
      "Ġacquire": 2471,
      "Ġarra": 2472,
      "Ġdesp": 2473,
      "Ġtwenty": 2474,
      "Ġobtaining": 2475,
      "ĠParva": 2476,
      "acrifice": 2477,
      "ried": 2478,
      "Ġrain": 2479,
      "ĠBharatas": 2480,
      "ges": 2481,
      "alf": 2482,
      "ĠSur": 2483,
      "Ġshower": 2484,
      "Ġread": 2485,
      "ĠVyasa": 2486,
      "Ġgoddess": 2487,
      "Ġhome": 2488,
      "ann": 2489,
      "Ġsho": 2490,
      "ĠGo": 2491,
      "ĠNo": 2492,
      "ploy": 2493,
      "Ġdestitute": 2494,
      "aja": 2495,
      "Ġmorality": 2496,
      "Ġgems": 2497,
      "ĠVais": 2498,
      "etimes": 2499,
      "Ġjoin": 2500,
      "Ġintelligent": 2501,
      "Ġangry": 2502,
      "Ġpurpose": 2503,
      "Ġweak": 2504,
      "gs": 2505,
      "wing": 2506,
      "asy": 2507,
      "alya": 2508,
      "hold": 2509,
      "Ġmark": 2510,
      "Ġmaid": 2511,
      "adatta": 2512,
      "Ġdispe": 2513,
      "Ġste": 2514,
      "Ġresplendent": 2515,
      "bod": 2516,
      "ia": 2517,
      "Ġtakes": 2518,
      "ĠEnd": 2519,
      "Ġbroad": 2520,
      "Ġins": 2521,
      "Ġseason": 2522,
      "Ġstay": 2523,
      "Ġmet": 2524,
      "Ġwelkin": 2525,
      "Ġlying": 2526,
      "ayas": 2527,
      "Ġotherwise": 2528,
      "Ġleave": 2529,
      "Ġhope": 2530,
      "00": 2531,
      "ew": 2532,
      "Ġconch": 2533,
      "Ġcher": 2534,
      "ĠLike": 2535,
      "ounded": 2536,
      "Ġmeaning": 2537,
      "Ġunable": 2538,
      "Ġsain": 2539,
      "erous": 2540,
      "ĠVer": 2541,
      "Ġprop": 2542,
      "illing": 2543,
      "Ġbows": 2544,
      "Ġstudy": 2545,
      "Hearing": 2546,
      "avat": 2547,
      "imanyu": 2548,
      "ĠHence": 2549,
      "Ġbowman": 2550,
      "Ġdevotion": 2551,
      "Ġspoke": 2552,
      "Ġkeep": 2553,
      "gn": 2554,
      "ister": 2555,
      "aract": 2556,
      "oj": 2557,
      "Ġmonth": 2558,
      "Ġappear": 2559,
      "Ġmanner": 2560,
      "Ġbowmen": 2561,
      "Ġreceived": 2562,
      "hat": 2563,
      "Ġcour": 2564,
      "amb": 2565,
      "Ġdesce": 2566,
      "Ġemploy": 2567,
      "Ġsy": 2568,
      "Ġmot": 2569,
      "Ġacquis": 2570,
      "Ġfought": 2571,
      "icles": 2572,
      "Ġfool": 2573,
      "Ġcelebrated": 2574,
      "tail": 2575,
      "Ġbes": 2576,
      "ĠSant": 2577,
      "Ġcharact": 2578,
      "ĠDharma": 2579,
      "Ġscor": 2580,
      "fluence": 2581,
      "Ġinn": 2582,
      "ĠVi": 2583,
      "Ġyouth": 2584,
      "Ġbright": 2585,
      "Ġparticular": 2586,
      "Ġdisregard": 2587,
      "ĠDeath": 2588,
      "Ġfraught": 2589,
      "llect": 2590,
      "ĠSud": 2591,
      "Ġimpet": 2592,
      "Ġbreath": 2593,
      "Ġcrush": 2594,
      "Ġcruel": 2595,
      "rut": 2596,
      "after": 2597,
      "Ġrespective": 2598,
      "ĠGandiva": 2599,
      "Ġcompassion": 2600,
      "Ġlonger": 2601,
      "Ġcovet": 2602,
      "Ġtirtha": 2603,
      "viz": 2604,
      "Ġthither": 2605,
      "Ġsought": 2606,
      "ikhand": 2607,
      "ĠEndued": 2608,
      "ls": 2609,
      "ĠRudra": 2610,
      "Ġwhatever": 2611,
      "Ġcloth": 2612,
      "Ġshaft": 2613,
      "ĠJanard": 2614,
      "Ġqualities": 2615,
      "ĠAbhimanyu": 2616,
      "Ġpie": 2617,
      "Ġlib": 2618,
      "alg": 2619,
      "Ġsea": 2620,
      "Ġlove": 2621,
      "Ġchastiser": 2622,
      "Ġpoison": 2623,
      "orious": 2624,
      "ĠJay": 2625,
      "Ġimmo": 2626,
      "Ġhurled": 2627,
      "restrain": 2628,
      "uh": 2629,
      "ita": 2630,
      "Ġval": 2631,
      "Ġsudden": 2632,
      "Ġdesires": 2633,
      "Ġprom": 2634,
      "Ġassembly": 2635,
      "headed": 2636,
      "Ġcharacter": 2637,
      "!\"": 2638,
      "pati": 2639,
      "Ġair": 2640,
      "Ġpast": 2641,
      "Ġnar": 2642,
      "Ġnear": 2643,
      "Ġprov": 2644,
      "Ġpenet": 2645,
      "Ġrelatives": 2646,
      "ishtha": 2647,
      "nty": 2648,
      "ignty": 2649,
      "Ġdriver": 2650,
      "aman": 2651,
      "Ġbroken": 2652,
      "vel": 2653,
      "Ġant": 2654,
      "arsh": 2655,
      "Ġexert": 2656,
      "Ġunited": 2657,
      "Ġbegin": 2658,
      "ksh": 2659,
      "Ġcap": 2660,
      "Ġlay": 2661,
      "Ġarrived": 2662,
      "Ġyield": 2663,
      "Ġacquainted": 2664,
      "while": 2665,
      "Ġest": 2666,
      "Ġsom": 2667,
      "Ġbed": 2668,
      "Ġtrib": 2669,
      "bol": 2670,
      "Ġche": 2671,
      "Ġdece": 2672,
      "Ġprinces": 2673,
      "ciation": 2674,
      "Ġflesh": 2675,
      "aksha": 2676,
      "Ġpleased": 2677,
      "Ġspeedily": 2678,
      "rent": 2679,
      "odara": 2680,
      "Ġrivers": 2681,
      "Ġappla": 2682,
      "Ġtransce": 2683,
      "ĠSw": 2684,
      "Ġforces": 2685,
      "Ġmonarchs": 2686,
      "Ġvoice": 2687,
      "Ġspiritual": 2688,
      "Ġmode": 2689,
      "termin": 2690,
      "Ġsovereignty": 2691,
      "avana": 2692,
      "ĠVrik": 2693,
      "Ġconsid": 2694,
      "Ġfat": 2695,
      "Ġcol": 2696,
      "Ġconstit": 2697,
      "Ġreverence": 2698,
      "ÂĢÂĻ": 2699,
      "Ġrequ": 2700,
      "uka": 2701,
      "Ġuttering": 2702,
      "Ġavo": 2703,
      "iri": 2704,
      "mon": 2705,
      "upe": 2706,
      "Ġren": 2707,
      "Ġancient": 2708,
      "Ġworthy": 2709,
      "inda": 2710,
      "oses": 2711,
      "Ġnames": 2712,
      "Ġfurn": 2713,
      "Ġdi": 2714,
      "ral": 2715,
      "Ġgrow": 2716,
      "Ġlad": 2717,
      "ĠKal": 2718,
      "anti": 2719,
      "Ġdelightful": 2720,
      "Ġesc": 2721,
      "go": 2722,
      "Ġast": 2723,
      "Ġpol": 2724,
      "Ġlake": 2725,
      "ĠSri": 2726,
      "Ġvan": 2727,
      "ĠAsura": 2728,
      "bhadra": 2729,
      "Ġreturned": 2730,
      "haspati": 2731,
      "sasana": 2732,
      "Ġcrown": 2733,
      "orning": 2734,
      "erving": 2735,
      "Ġrepair": 2736,
      "ukt": 2737,
      "ĠAlas": 2738,
      "Ġgarl": 2739,
      "ĠBengal": 2740,
      "Ġdreadful": 2741,
      "mission": 2742,
      "atch": 2743,
      "izens": 2744,
      "Ġrepres": 2745,
      "Ġdarkness": 2746,
      "!âĢĿ": 2747,
      "iti": 2748,
      "owing": 2749,
      "haust": 2750,
      "eousness": 2751,
      "Ġgoing": 2752,
      "Ġdart": 2753,
      "Ġstri": 2754,
      "Ġchar": 2755,
      "Ġsubs": 2756,
      "Ġclass": 2757,
      "Ġequipped": 2758,
      "Ġdepart": 2759,
      "adratha": 2760,
      "Ġcalam": 2761,
      "Ġurged": 2762,
      "Ġpoured": 2763,
      "aining": 2764,
      "ĠNil": 2765,
      "Ġpractices": 2766,
      "Ġwishes": 2767,
      "Ġobservance": 2768,
      "Ġcountry": 2769,
      "Ġstraight": 2770,
      "certain": 2771,
      "vered": 2772,
      "Ġseat": 2773,
      "ĠRaj": 2774,
      "Ġfact": 2775,
      "tingu": 2776,
      "Ġhandsome": 2777,
      "these": 2778,
      "ĠBoth": 2779,
      "Ġdetail": 2780,
      "Ġenqu": 2781,
      "Ġabs": 2782,
      "Ġagit": 2783,
      "form": 2784,
      "Ġprev": 2785,
      "Ġconcl": 2786,
      "Ġachieved": 2787,
      "Ġassembled": 2788,
      "Ġsent": 2789,
      "idence": 2790,
      "iversal": 2791,
      "Ġwon": 2792,
      "Ġtreat": 2793,
      "ĠVa": 2794,
      "adwaja": 2795,
      "Ġacquisition": 2796,
      "Let": 2797,
      "mble": 2798,
      "Ġabove": 2799,
      "from": 2800,
      "Ġtear": 2801,
      "aven": 2802,
      "ĠSudra": 2803,
      "acha": 2804,
      "Ġphys": 2805,
      "ĠMadhu": 2806,
      "hood": 2807,
      "known": 2808,
      "Ġcircum": 2809,
      "uck": 2810,
      "orted": 2811,
      "ĠSav": 2812,
      "Ġcompet": 2813,
      "Ġfalling": 2814,
      "Ġconnection": 2815,
      "ĠSindh": 2816,
      "hab": 2817,
      "Ġattaining": 2818,
      "What": 2819,
      "Ġdirections": 2820,
      "Ġloss": 2821,
      "Ġround": 2822,
      "anger": 2823,
      "where": 2824,
      "like": 2825,
      "Ġ4": 2826,
      "Ġwrong": 2827,
      "Ġhist": 2828,
      "Ġbutter": 2829,
      "Ġcurse": 2830,
      "Ġhalf": 2831,
      "Ġmater": 2832,
      "Ġdice": 2833,
      "ityas": 2834,
      "amejaya": 2835,
      "Ġsmall": 2836,
      "ĠKritav": 2837,
      "ĠAng": 2838,
      "ĠSrin": 2839,
      "fort": 2840,
      "Ġfeats": 2841,
      "Ġcompan": 2842,
      "val": 2843,
      "Ġpour": 2844,
      "ĠSrut": 2845,
      "ĠPh": 2846,
      "Ġglory": 2847,
      "Ġgratif": 2848,
      "Ġeffect": 2849,
      "ĠVisw": 2850,
      "Ġstatus": 2851,
      "bolt": 2852,
      "Ġund": 2853,
      "ĠSra": 2854,
      "apa": 2855,
      "ĠMaster": 2856,
      "law": 2857,
      "Ġnumerous": 2858,
      "ĠVrikodara": 2859,
      "enced": 2860,
      "Ġmakes": 2861,
      "Ġstupe": 2862,
      "Ġordained": 2863,
      "ably": 2864,
      "ĠMadras": 2865,
      "Ġsometimes": 2866,
      "Ġhadst": 2867,
      "Ġknowing": 2868,
      "ossessed": 2869,
      "Ġappeared": 2870,
      "iny": 2871,
      "rew": 2872,
      "Ġconce": 2873,
      "sold": 2874,
      "Ġneither": 2875,
      "Ġfollowers": 2876,
      "Ġcommit": 2877,
      "abl": 2878,
      "Ġremem": 2879,
      "body": 2880,
      "Ġlibations": 2881,
      "come": 2882,
      "Ġident": 2883,
      "osity": 2884,
      "Ġunf": 2885,
      "Ġperforming": 2886,
      "Ġprincess": 2887,
      "ĠJanardana": 2888,
      "Ġhue": 2889,
      "Ġgiver": 2890,
      "Ġheld": 2891,
      "Ġvi": 2892,
      "Dh": 2893,
      "ond": 2894,
      "ĠAsh": 2895,
      "ĠKing": 2896,
      "Ġfair": 2897,
      "Ġretreat": 2898,
      "Ġtranqu": 2899,
      "whel": 2900,
      "Ġpoint": 2901,
      "Ġembod": 2902,
      "ĠVaruna": 2903,
      "Ġmorning": 2904,
      "ĠDa": 2905,
      "Ġproc": 2906,
      "Ġgrieve": 2907,
      "Ġcasting": 2908,
      "soldiers": 2909,
      "Ġwings": 2910,
      "edi": 2911,
      "Ġstanding": 2912,
      "Ġveh": 2913,
      "Ġbulls": 2914,
      "When": 2915,
      "Ġdisciples": 2916,
      ",'": 2917,
      "cy": 2918,
      "edd": 2919,
      "Ġlau": 2920,
      "ĠBrahmach": 2921,
      "ĠWhile": 2922,
      "Ġfamily": 2923,
      "Ġbranch": 2924,
      "ĠSurya": 2925,
      "Ġhy": 2926,
      "Ġcase": 2927,
      "ĠMa": 2928,
      "umerable": 2929,
      "ĠVrishni": 2930,
      "ĠVerily": 2931,
      "It": 2932,
      "Ġarmour": 2933,
      "Ġnecess": 2934,
      "Ġsword": 2935,
      "ĠSantanu": 2936,
      "ĠBhag": 2937,
      "Ġdescri": 2938,
      "ĠSuk": 2939,
      "Ġinstruct": 2940,
      "Ġsupport": 2941,
      "ĠJayadratha": 2942,
      "Ġcrow": 2943,
      "ĠMe": 2944,
      "Ġbeneficial": 2945,
      "Ġbelonging": 2946,
      "Ġanxiety": 2947,
      "wan": 2948,
      "omb": 2949,
      "ĠBharadwaja": 2950,
      "ĠYog": 2951,
      "Ġcheerless": 2952,
      "In": 2953,
      "ĠSee": 2954,
      "Ġalthough": 2955,
      "ĠJiva": 2956,
      "Ġenter": 2957,
      "ages": 2958,
      "Ġiron": 2959,
      "ĠCreator": 2960,
      "Ġhung": 2961,
      "oma": 2962,
      "Ġfaith": 2963,
      "medi": 2964,
      "Ġhappy": 2965,
      "Ġcompetent": 2966,
      "jug": 2967,
      "tness": 2968,
      "Ġfavour": 2969,
      "Ġdru": 2970,
      "ĠSar": 2971,
      "ĠHeaven": 2972,
      "ĠâĢĺ": 2973,
      "ural": 2974,
      "Ġplaces": 2975,
      "Ġcorrect": 2976,
      "Ġfurnished": 2977,
      "con": 2978,
      "Ġpala": 2979,
      "Ġunt": 2980,
      "amv": 2981,
      "ĠPanc": 2982,
      "Ġwalk": 2983,
      "Ġhither": 2984,
      "Ġlow": 2985,
      "ĠIs": 2986,
      "ghtered": 2987,
      "Ġshort": 2988,
      "get": 2989,
      "formed": 2990,
      "Ġconsciousness": 2991,
      "Ġsouls": 2992,
      "Ġfelt": 2993,
      "ually": 2994,
      "Ġda": 2995,
      "standing": 2996,
      "aste": 2997,
      "Ġuniversal": 2998,
      "ĠChit": 2999,
      "Ġshoot": 3000,
      "ukteswar": 3001,
      "ror": 3002,
      "Ġgir": 3003,
      "ĠDes": 3004,
      "ĠTo": 3005,
      "Ġfighting": 3006,
      "Ġobservant": 3007,
      "spring": 3008,
      "ĠSelf": 3009,
      "Ġcreation": 3010,
      "ĠVedic": 3011,
      "anka": 3012,
      "Ġtransl": 3013,
      "ĠSradd": 3014,
      "Ġmis": 3015,
      "rid": 3016,
      "erest": 3017,
      "Ġherself": 3018,
      "Ġspace": 3019,
      "ips": 3020,
      "Ġprotecting": 3021,
      "Ġfar": 3022,
      "Ġlust": 3023,
      "alse": 3024,
      "Ġadored": 3025,
      "ĠShalya": 3026,
      "YA": 3027,
      "Ġperpet": 3028,
      "ĠTruth": 3029,
      "Ġattached": 3030,
      "Ġincre": 3031,
      "Ġwait": 3032,
      "Ġinjury": 3033,
      "Ġofferings": 3034,
      "Ġhour": 3035,
      "Ġreally": 3036,
      "ctions": 3037,
      "ĠPossessed": 3038,
      "ĠYukteswar": 3039,
      "Ġador": 3040,
      "Ġsubjug": 3041,
      "ĠVasava": 3042,
      "ended": 3043,
      "Ġhell": 3044,
      "etra": 3045,
      "ĠBeing": 3046,
      "Ġpiercing": 3047,
      "Ġrun": 3048,
      "Ġapproaching": 3049,
      "ĠVrihaspati": 3050,
      "Ġscorch": 3051,
      "ndered": 3052,
      "Ġreached": 3053,
      "akan": 3054,
      "Ġstory": 3055,
      "fulness": 3056,
      "Ġgrass": 3057,
      "Ġburning": 3058,
      "kriti": 3059,
      "rate": 3060,
      "ĠSaras": 3061,
      "Ġsuddenly": 3062,
      "ĠOr": 3063,
      "Ġrule": 3064,
      "Ġimmobile": 3065,
      "Ġ7": 3066,
      "inite": 3067,
      "Ġmantras": 3068,
      "asons": 3069,
      "Ġpal": 3070,
      "uda": 3071,
      "ĠYe": 3072,
      "Ġoffspring": 3073,
      "ounding": 3074,
      "Ġwhether": 3075,
      "Ġmeasure": 3076,
      "Ġarray": 3077,
      "ream": 3078,
      "Ġcries": 3079,
      "Ġascertain": 3080,
      "erence": 3081,
      "rung": 3082,
      "Ġbehind": 3083,
      "ĠEx": 3084,
      "ilarly": 3085,
      "atthaman": 3086,
      "ombay": 3087,
      "And": 3088,
      "oved": 3089,
      "urd": 3090,
      "Ġsped": 3091,
      "Ġresult": 3092,
      "Ġoverwhel": 3093,
      "Ġdisciple": 3094,
      "Ġliber": 3095,
      "Ġeldest": 3096,
      "Ġbeginning": 3097,
      "ĠPhalg": 3098,
      "ones": 3099,
      "Ġfalse": 3100,
      "Ġasceticism": 3101,
      "Ġturned": 3102,
      "rose": 3103,
      "aps": 3104,
      "ĠThereupon": 3105,
      "Ġ5": 3106,
      "Ġdam": 3107,
      "ĠBombay": 3108,
      "ĠDus": 3109,
      "Ġmans": 3110,
      "Ġdeserve": 3111,
      "Ġpermission": 3112,
      "arent": 3113,
      "Ġunderstand": 3114,
      "ĠMahas": 3115,
      "ĠRajas": 3116,
      "Do": 3117,
      "Ġsan": 3118,
      "ators": 3119,
      "Ġment": 3120,
      "Ġwitness": 3121,
      "ster": 3122,
      "ĠShe": 3123,
      "Ġtreas": 3124,
      "Ġanswer": 3125,
      "Ġwielder": 3126,
      "akantha": 3127,
      "Ġser": 3128,
      "Ġfish": 3129,
      "Ġfast": 3130,
      "Ġhermit": 3131,
      "Ġattention": 3132,
      "ĠGandhari": 3133,
      "Ġenjoyment": 3134,
      "Ġdisplay": 3135,
      "Ar": 3136,
      "oc": 3137,
      "Ġarose": 3138,
      "Ġfixed": 3139,
      "Ġcent": 3140,
      "!'\"": 3141,
      "Ġfortun": 3142,
      "Ġladies": 3143,
      "Ġpalace": 3144,
      "Ġvali": 3145,
      "ĠMany": 3146,
      "ĠRight": 3147,
      "ĠNala": 3148,
      "iveness": 3149,
      "dra": 3150,
      "Ġvers": 3151,
      "isement": 3152,
      "Ġmeat": 3153,
      "ĠRadha": 3154,
      "Ġillusion": 3155,
      "Ġinnumerable": 3156,
      "ĠNilakantha": 3157,
      "After": 3158,
      "eyed": 3159,
      "Ġready": 3160,
      "ĠAps": 3161,
      "otk": 3162,
      "Ġsevere": 3163,
      "Ġsepar": 3164,
      "lessly": 3165,
      "ception": 3166,
      "Ġmobile": 3167,
      "Ġawful": 3168,
      "Ġtears": 3169,
      "Ġvaliant": 3170,
      ".âĢĻ": 3171,
      "inion": 3172,
      "Ġsever": 3173,
      "Ġyore": 3174,
      "Ġelements": 3175,
      "Ġvirtues": 3176,
      "Ġfew": 3177,
      "ĠSubhadra": 3178,
      "Ġcomplex": 3179,
      "Ġestabl": 3180,
      "ĠMahasaya": 3181,
      ".--": 3182,
      "bers": 3183,
      "Ġed": 3184,
      "ines": 3185,
      "ĠGhat": 3186,
      "Ġsprung": 3187,
      "Ġfully": 3188,
      "Ġthinking": 3189,
      "Ġstandards": 3190,
      "affled": 3191,
      "ĠBrahmachar": 3192,
      "bly": 3193,
      "Ġlived": 3194,
      "ĠThrough": 3195,
      "aks": 3196,
      "Ġdise": 3197,
      "Ġmang": 3198,
      "ĠGar": 3199,
      "Ġdesired": 3200,
      "Ġmoved": 3201,
      "Ġmention": 3202,
      "amed": 3203,
      "Ġstation": 3204,
      "Ġseed": 3205,
      "ouses": 3206,
      "Ġnoise": 3207,
      "Ġacquires": 3208,
      "Ġopen": 3209,
      "Ġemployed": 3210,
      "Ġgarlands": 3211,
      "oga": 3212,
      "unciation": 3213,
      "Ġfaults": 3214,
      "Ġhappened": 3215,
      "Ġassail": 3216,
      "ĠPrakriti": 3217,
      "Ġslaughtered": 3218,
      "Ġagitated": 3219,
      "Ġstream": 3220,
      "Ġworshipp": 3221,
      "Ġtigers": 3222,
      "ĠYuga": 3223,
      "rep": 3224,
      "oun": 3225,
      "Ġdust": 3226,
      "ahiri": 3227,
      "Ġrobes": 3228,
      "Ġignorance": 3229,
      "ĠOther": 3230,
      "ĠMar": 3231,
      "Ġrecited": 3232,
      "Ġhistory": 3233,
      "adas": 3234,
      "ishing": 3235,
      "Ġconstitute": 3236,
      "Ġobserving": 3237,
      "Ġembra": 3238,
      "ĠAswatthaman": 3239,
      "Ġjoined": 3240,
      "Ġhard": 3241,
      "Ġtheirs": 3242,
      "rasena": 3243,
      "Ġcheerfully": 3244,
      "ĠAdh": 3245,
      "Ġportion": 3246,
      "yl": 3247,
      "Ġpractise": 3248,
      "Ġlaugh": 3249,
      "Ġhermitage": 3250,
      "ĠGhatotk": 3251,
      "bha": 3252,
      "teen": 3253,
      "akra": 3254,
      "ĠVrit": 3255,
      "ila": 3256,
      "Ġpriest": 3257,
      "Ġexplains": 3258,
      "ĠJanamejaya": 3259,
      "here": 3260,
      "Ġthirt": 3261,
      "ctive": 3262,
      "ĠPrish": 3263,
      "Dhritarashtra": 3264,
      "Ġbranches": 3265,
      "Ġmus": 3266,
      "âĢĺ": 3267,
      "sued": 3268,
      "anwhile": 3269,
      "eless": 3270,
      "laim": 3271,
      "pped": 3272,
      "Ġinspired": 3273,
      "Ġsaint": 3274,
      "Ġdescend": 3275,
      "If": 3276,
      "thas": 3277,
      "atched": 3278,
      "Ġdro": 3279,
      "uding": 3280,
      "ĠâĢľâĢĺ": 3281,
      "ĠSuv": 3282,
      "Ġcheerful": 3283,
      "Ġuncle": 3284,
      "Ġmaiden": 3285,
      "Ġbecoming": 3286,
      "Ġrushing": 3287,
      "ination": 3288,
      "Ġder": 3289,
      "Ġlaw": 3290,
      "ows": 3291,
      "ivity": 3292,
      "Ġwelf": 3293,
      "Ġunright": 3294,
      "Ġleaving": 3295,
      "Ġjew": 3296,
      "Ġovert": 3297,
      "Ġattribute": 3298,
      "ĠMadhava": 3299,
      "ikhandin": 3300,
      "Ġwelfare": 3301,
      "sacrifice": 3302,
      "vinda": 3303,
      "ative": 3304,
      "lling": 3305,
      "Ġgaz": 3306,
      "Ġwash": 3307,
      "anta": 3308,
      "Ġdrag": 3309,
      "Ġmeditation": 3310,
      "Ġroots": 3311,
      "Ġgrandson": 3312,
      "Ġsave": 3313,
      "utations": 3314,
      "Ġformed": 3315,
      "Ġattend": 3316,
      "Ġheaded": 3317,
      "Ġproperly": 3318,
      "Ġthick": 3319,
      "Ġcall": 3320,
      "Ġkne": 3321,
      "Ġalive": 3322,
      "ĠVal": 3323,
      "Ġtrun": 3324,
      "Ġentertain": 3325,
      "Ġblack": 3326,
      "Ġdrawn": 3327,
      "Ġdivision": 3328,
      "ĠGhatotkacha": 3329,
      "bl": 3330,
      "nis": 3331,
      "Ġ6": 3332,
      "Ġwant": 3333,
      "Ġpar": 3334,
      "stances": 3335,
      "Ġ19": 3336,
      "Ġguests": 3337,
      "Ġpuri": 3338,
      "HA": 3339,
      "ration": 3340,
      "Ġsour": 3341,
      "Ġsign": 3342,
      "Ġfut": 3343,
      "itions": 3344,
      "Ġash": 3345,
      "ĠDuh": 3346,
      "Ġsup": 3347,
      "ĠIndia": 3348,
      "Ġroars": 3349,
      "ĠYuy": 3350,
      "ĠVritra": 3351,
      "dh": 3352,
      "Ġden": 3353,
      "Ġwild": 3354,
      "Ġgives": 3355,
      "Ġmyster": 3356,
      "ĠMats": 3357,
      "ĠYad": 3358,
      "ĠVasishtha": 3359,
      "ĠSalya": 3360,
      "Ġthirst": 3361,
      "asyapa": 3362,
      "com": 3363,
      "den": 3364,
      "gu": 3365,
      "rang": 3366,
      "Ġhence": 3367,
      "outs": 3368,
      "ĠSikhandin": 3369,
      "Ġobedi": 3370,
      "Ġresolved": 3371,
      "Ġasyl": 3372,
      "ili": 3373,
      "oke": 3374,
      "Ġspec": 3375,
      "Ġwoe": 3376,
      "Ġconcent": 3377,
      "Ġirres": 3378,
      "Ġdefeat": 3379,
      "Ġstriking": 3380,
      "Ġasylum": 3381,
      "Ġmess": 3382,
      "Ġtown": 3383,
      "Ġget": 3384,
      "ĠVik": 3385,
      "Ġpresents": 3386,
      "Ġplay": 3387,
      "Ġdepend": 3388,
      "onine": 3389,
      "Ġinhab": 3390,
      "Ġwithdra": 3391,
      "amas": 3392,
      "Ġexer": 3393,
      "elve": 3394,
      "ĠUnder": 3395,
      "Ġproceeding": 3396,
      "Ġhereafter": 3397,
      "Ġdistin": 3398,
      "Ġhonoured": 3399,
      "Ġexertion": 3400,
      "Ġcomplexion": 3401,
      "ĠPrishata": 3402,
      "rehe": 3403,
      "Ġhold": 3404,
      "Ġcens": 3405,
      "Ġreach": 3406,
      "Ġexists": 3407,
      "inded": 3408,
      "Ġmayst": 3409,
      "Ġpraise": 3410,
      "Ġsounds": 3411,
      "Ġcounse": 3412,
      "Ġhelp": 3413,
      "Arjuna": 3414,
      "?âĢĿ": 3415,
      "Ġess": 3416,
      "Ġsport": 3417,
      "Ġleonine": 3418,
      "Ġcompany": 3419,
      "ek": 3420,
      "eya": 3421,
      "gg": 3422,
      "Ġer": 3423,
      "aring": 3424,
      "iras": 3425,
      "Ġarri": 3426,
      "atha": 3427,
      "istible": 3428,
      "Ġquar": 3429,
      "Ġobtaineth": 3430,
      "Ġcouple": 3431,
      "Ġsuffer": 3432,
      "Ġpuissance": 3433,
      "tinguished": 3434,
      "ĠSindhus": 3435,
      "ĠRighteousness": 3436,
      "RI": 3437,
      "Ġgreater": 3438,
      "Ġclad": 3439,
      "Ġincur": 3440,
      "Ġhousehold": 3441,
      "Ġcrowned": 3442,
      "Ġmangled": 3443,
      "eness": 3444,
      "Ġfif": 3445,
      "Ġdanger": 3446,
      "ĠSo": 3447,
      "Ġsages": 3448,
      "Ġextermin": 3449,
      "isters": 3450,
      "Ġremain": 3451,
      "Ġrecite": 3452,
      "ĠSakuni": 3453,
      "mer": 3454,
      "Ġbaffled": 3455,
      "Ġfem": 3456,
      "arified": 3457,
      "Ġma": 3458,
      "lly": 3459,
      "Ġshouts": 3460,
      "ĠYakshas": 3461,
      "elling": 3462,
      "ĠLahiri": 3463,
      "ointed": 3464,
      "Ġplan": 3465,
      "Ġskilled": 3466,
      "ĠMadri": 3467,
      "Ġcourt": 3468,
      "Ġoverwhelmed": 3469,
      "Ġsupreme": 3470,
      "use": 3471,
      "Ġsold": 3472,
      "Ġbore": 3473,
      "Ġdisch": 3474,
      "Ġrules": 3475,
      "Ġthunderbolt": 3476,
      "restraint": 3477,
      "ĠSeeing": 3478,
      "Ġpun": 3479,
      "Ġvital": 3480,
      "Ġexper": 3481,
      "ĠThough": 3482,
      "Ġclose": 3483,
      "Ġyounger": 3484,
      "Ġviol": 3485,
      "Ġhymn": 3486,
      "ke": 3487,
      "xts": 3488,
      "Ġsister": 3489,
      "Ġdream": 3490,
      "amad": 3491,
      "ĠMen": 3492,
      "Ġchest": 3493,
      "Ġtwelve": 3494,
      "Ġevening": 3495,
      "ahusha": 3496,
      "Ġswords": 3497,
      "Ġsucceeded": 3498,
      "Ġexpect": 3499,
      "manifest": 3500,
      "Ġstret": 3501,
      "Ġdidst": 3502,
      "Ġinstru": 3503,
      "ĠUpon": 3504,
      "Ġcalamity": 3505,
      "Ġremember": 3506,
      "Ġirresistible": 3507,
      "cest": 3508,
      "Ġland": 3509,
      "Ġshare": 3510,
      "Ġgreatly": 3511,
      "Ġunion": 3512,
      "autama": 3513,
      "Ġsummon": 3514,
      "Ġseized": 3515,
      "Ġadvanced": 3516,
      "Ġfoolish": 3517,
      "ĠBurd": 3518,
      "Ġpurity": 3519,
      "Ġtexts": 3520,
      "ĠPanchala": 3521,
      "ĠKnowledge": 3522,
      "ĠApsaras": 3523,
      "ĠMarut": 3524,
      "ĠDur": 3525,
      "uman": 3526,
      "Ġfaces": 3527,
      "Ġclarified": 3528,
      "Ġanimal": 3529,
      "Ġservants": 3530,
      "Ġcounsels": 3531,
      "Ġthird": 3532,
      "Ġcovetous": 3533,
      "ĠBurdwan": 3534,
      "Ġinfluence": 3535,
      "ĠNag": 3536,
      "Ġpray": 3537,
      "fic": 3538,
      "Ġaim": 3539,
      "isible": 3540,
      "Ġfu": 3541,
      "Ġcro": 3542,
      "ĠSini": 3543,
      "ĠTheir": 3544,
      "Ġyog": 3545,
      "rying": 3546,
      "Ġachieve": 3547,
      "Ġbathed": 3548,
      "Ġbu": 3549,
      "andha": 3550,
      "ĠDas": 3551,
      "ostly": 3552,
      "Ġthereupon": 3553,
      "Ġran": 3554,
      "Ġbreast": 3555,
      "Ġdeeply": 3556,
      "ification": 3557,
      "Ġdeclared": 3558,
      "Ġcounsell": 3559,
      "his": 3560,
      "Ġ8": 3561,
      "Ġpati": 3562,
      "itable": 3563,
      "avati": 3564,
      "ĠKasyapa": 3565,
      "ivid": 3566,
      "umin": 3567,
      "Ġrig": 3568,
      "Ġboons": 3569,
      "Ġarrowy": 3570,
      "Ġunderstood": 3571,
      "ĠHimavat": 3572,
      "Ġescape": 3573,
      "dy": 3574,
      "Ġdie": 3575,
      "Ġluck": 3576,
      "ads": 3577,
      "ami": 3578,
      "Ġflam": 3579,
      "Ġheavy": 3580,
      "ina": 3581,
      "reath": 3582,
      "ask": 3583,
      "rage": 3584,
      "Ġlie": 3585,
      "Ġlords": 3586,
      "That": 3587,
      "ĠSp": 3588,
      "ĠSim": 3589,
      "andeya": 3590,
      "icious": 3591,
      "Ġyoga": 3592,
      "Ġbegot": 3593,
      "arkandeya": 3594,
      "Ġcommanded": 3595,
      "AN": 3596,
      "Ġcover": 3597,
      "Ġdivested": 3598,
      "Ġteach": 3599,
      "Ġcauses": 3600,
      "Ġcurrent": 3601,
      "ĠKaurava": 3602,
      "Ġsen": 3603,
      "Ġeating": 3604,
      "astya": 3605,
      "ĠNor": 3606,
      "ĠNahusha": 3607,
      "Ġimmedi": 3608,
      "Ġrose": 3609,
      "Ġdwelling": 3610,
      "Ġburnt": 3611,
      "ĠVibh": 3612,
      "ja": 3613,
      "Ġdarts": 3614,
      "Ġlances": 3615,
      "Ġstaying": 3616,
      "ĠChand": 3617,
      "Ġpractising": 3618,
      "duced": 3619,
      "Ġperformance": 3620,
      "Ġhills": 3621,
      "gra": 3622,
      "land": 3623,
      "Ġcit": 3624,
      "Ġheat": 3625,
      "Ġarticles": 3626,
      "han": 3627,
      "yond": 3628,
      "Ġthing": 3629,
      "Ġwing": 3630,
      "Ġrendered": 3631,
      "istent": 3632,
      "Ġende": 3633,
      "Ġpursu": 3634,
      "Ġgirl": 3635,
      "ĠGaruda": 3636,
      "Ġrigid": 3637,
      "Ġcross": 3638,
      "Ġmain": 3639,
      "amitra": 3640,
      "Ġexte": 3641,
      "ĠMuni": 3642,
      "Ġaff": 3643,
      "Ġcloud": 3644,
      "Ġabandoning": 3645,
      "Ġmodes": 3646,
      "Ġdomest": 3647,
      "Ġsitting": 3648,
      "Ġphysical": 3649,
      "Beh": 3650,
      "Ġlament": 3651,
      "Ġsust": 3652,
      "ĠHere": 3653,
      "Ġorg": 3654,
      "Ġprotector": 3655,
      "ĠDestroy": 3656,
      "Ġdespatched": 3657,
      "Ġseveral": 3658,
      "Ġfle": 3659,
      "Ġproud": 3660,
      "Ġaccomplishment": 3661,
      "Ġmotion": 3662,
      "Ġshooting": 3663,
      "ĠPhalguna": 3664,
      "ler": 3665,
      "Ġtrain": 3666,
      "Ġpowers": 3667,
      "ĠDiv": 3668,
      "ĠYaj": 3669,
      "Ġeverywhere": 3670,
      "Ġourselves": 3671,
      "Ġdelay": 3672,
      "Ġsilent": 3673,
      "ĠDaityas": 3674,
      "Ġfires": 3675,
      "riage": 3676,
      "ayati": 3677,
      "elt": 3678,
      "Ġhigher": 3679,
      "ortal": 3680,
      "Ġobserved": 3681,
      "Ġborne": 3682,
      "Ġsolicit": 3683,
      "ti": 3684,
      "uth": 3685,
      "Ġrev": 3686,
      "ĠSatt": 3687,
      "Ġvir": 3688,
      "ĠMan": 3689,
      "ĠEvery": 3690,
      "Ġimpl": 3691,
      "Ġobtains": 3692,
      "Ġremained": 3693,
      "Ġimport": 3694,
      "Ġconquered": 3695,
      "Ġstupefied": 3696,
      "erally": 3697,
      "Ġfit": 3698,
      "Ġmal": 3699,
      "Ġmatt": 3700,
      "asp": 3701,
      "ases": 3702,
      "Ġparts": 3703,
      "Ġnine": 3704,
      "Ġancest": 3705,
      "illity": 3706,
      "Ġju": 3707,
      "rita": 3708,
      "Ġprep": 3709,
      "Ġsubt": 3710,
      "Ġregarding": 3711,
      "ĠPancalas": 3712,
      "ead": 3713,
      "fa": 3714,
      "Ġgot": 3715,
      "avya": 3716,
      "thern": 3717,
      "icy": 3718,
      "Ġobst": 3719,
      "lessness": 3720,
      "Ġjud": 3721,
      "Ġbird": 3722,
      "Ġdisposition": 3723,
      "Ġordinances": 3724,
      "Ġadvancing": 3725,
      "Ġcherish": 3726,
      "Ġcompanion": 3727,
      "Ġmaces": 3728,
      "aved": 3729,
      "cts": 3730,
      "ĠSidd": 3731,
      "icated": 3732,
      "ulf": 3733,
      "Ġgrand": 3734,
      "Ġacquiring": 3735,
      "Ġwheel": 3736,
      "Ġdivisions": 3737,
      "Ġwedd": 3738,
      "Ġbanks": 3739,
      "amay": 3740,
      "etted": 3741,
      "Ġspring": 3742,
      "aught": 3743,
      "Ġtwins": 3744,
      "Ġbetter": 3745,
      "Ġproductive": 3746,
      "ĠSankh": 3747,
      "Ġfatig": 3748,
      "Ġ9": 3749,
      "riv": 3750,
      "Ġshroud": 3751,
      "Ġvig": 3752,
      "indu": 3753,
      "ĠGautama": 3754,
      "Ġleaves": 3755,
      "Ġactivity": 3756,
      "Ġtrust": 3757,
      "Ġconsisting": 3758,
      "ĠVrishnis": 3759,
      "Ġrestrained": 3760,
      "Ġcircumstances": 3761,
      "Ġsoldiers": 3762,
      "Ġwide": 3763,
      "rav": 3764,
      "Ġkilled": 3765,
      "Ġsex": 3766,
      "Ġworldly": 3767,
      "Ġplun": 3768,
      "Ġforgiveness": 3769,
      "Ġrescue": 3770,
      "Ġpiece": 3771,
      "Ġprevious": 3772,
      "Ġjewels": 3773,
      "Ġexperi": 3774,
      "ĠSimilarly": 3775,
      "range": 3776,
      "Ġbri": 3777,
      "Ġbad": 3778,
      "Ġtopic": 3779,
      "ric": 3780,
      "ĠAv": 3781,
      "Ġstars": 3782,
      "ĠMoon": 3783,
      "oney": 3784,
      "arer": 3785,
      "Ġascended": 3786,
      "Ġpractised": 3787,
      "Ġdirected": 3788,
      "ĠSalutations": 3789,
      "Ġconnected": 3790,
      "Ġstrike": 3791,
      "ĠPurusha": 3792,
      "Ġapplauded": 3793,
      "Ġheed": 3794,
      "Ġsearch": 3795,
      "Ġweep": 3796,
      "ourne": 3797,
      "Ġupro": 3798,
      "ements": 3799,
      "Ġsubd": 3800,
      "Ġfragr": 3801,
      "Ġbesides": 3802,
      "Ġdeceit": 3803,
      "ĠDestroyer": 3804,
      "Ġbar": 3805,
      "There": 3806,
      "cho": 3807,
      "ĠWind": 3808,
      "Ġleading": 3809,
      "Ġrepa": 3810,
      "Ġinvisible": 3811,
      "Ġhonours": 3812,
      "ĠAmong": 3813,
      "Ġdiad": 3814,
      "iet": 3815,
      "sk": 3816,
      "Ġwhetted": 3817,
      "omp": 3818,
      "ciated": 3819,
      "Ġdestroying": 3820,
      "Ġinfer": 3821,
      "Ġbenefit": 3822,
      "Ġformerly": 3823,
      "Ġpurposes": 3824,
      "Ġprofit": 3825,
      "ĠDussasana": 3826,
      "yodhana": 3827,
      "ram": 3828,
      "verse": 3829,
      "Ġstone": 3830,
      "itya": 3831,
      "Ġoffering": 3832,
      "Ġjourne": 3833,
      "Ġroom": 3834,
      "Ġentering": 3835,
      "ĠĠĠĠ": 3836,
      "oped": 3837,
      "Ġtremb": 3838,
      "Ġopinion": 3839,
      "Ġhunger": 3840,
      "ĠNagas": 3841,
      "rating": 3842,
      "Ġbatt": 3843,
      "Ġled": 3844,
      "ĠVah": 3845,
      "Ġgrind": 3846,
      "Ġdistance": 3847,
      "Ġtext": 3848,
      "Ġembodied": 3849,
      "Ġnecessary": 3850,
      "Ġspecies": 3851,
      "Ġtong": 3852,
      "Ġcere": 3853,
      "apati": 3854,
      "asting": 3855,
      "Ġdissol": 3856,
      "Ġjack": 3857,
      "Ġqueen": 3858,
      "Ġsink": 3859,
      "ĠWhatever": 3860,
      "Ġcourage": 3861,
      "Ġperfectly": 3862,
      "wor": 3863,
      "Ġfre": 3864,
      "Ġcours": 3865,
      "Ġlik": 3866,
      "Ġves": 3867,
      "peci": 3868,
      "Ġpreceptors": 3869,
      "Ġguest": 3870,
      "Ġvision": 3871,
      "Ġordinance": 3872,
      "Ġsimilar": 3873,
      "Ġpenetrated": 3874,
      "Ġconsider": 3875,
      "Ġtranquillity": 3876,
      "Ġfuture": 3877,
      "Ġreb": 3878,
      "icle": 3879,
      "ĠNish": 3880,
      "pless": 3881,
      "Ġindivid": 3882,
      "Ġways": 3883,
      "Ġservice": 3884,
      "Ġkept": 3885,
      "Ġsecret": 3886,
      "Ġsanct": 3887,
      "ian": 3888,
      "jayas": 3889,
      "ĠAb": 3890,
      "Ġappl": 3891,
      "Ġlightning": 3892,
      "ĠGovinda": 3893,
      "Ġpouring": 3894,
      "pri": 3895,
      "isen": 3896,
      "Ġfur": 3897,
      "ĠKu": 3898,
      "ĠMun": 3899,
      "Ġrout": 3900,
      "Ġslight": 3901,
      "Ġprinci": 3902,
      "flicted": 3903,
      "athers": 3904,
      "Ġstationed": 3905,
      "Ġceremon": 3906,
      "gri": 3907,
      "ature": 3908,
      "Ġfun": 3909,
      "Ġfulf": 3910,
      "uting": 3911,
      "pelled": 3912,
      "ĠHari": 3913,
      "Ġexam": 3914,
      "Ġbliss": 3915,
      "ĠSuyodhana": 3916,
      "Ġcutting": 3917,
      "Ġskill": 3918,
      "ructible": 3919,
      "Ġordinary": 3920,
      "Ġcolour": 3921,
      "Ġastral": 3922,
      "Ġknew": 3923,
      "Ġflames": 3924,
      "Ġcitizens": 3925,
      "How": 3926,
      "erves": 3927,
      "Ġfly": 3928,
      "Ġtaste": 3929,
      "Ġposs": 3930,
      "ils": 3931,
      "sha": 3932,
      "osing": 3933,
      "rows": 3934,
      "Ġclear": 3935,
      "Ġconquer": 3936,
      "Ġmaterial": 3937,
      "ĠSrinjayas": 3938,
      "So": 3939,
      "ev": 3940,
      "Ġide": 3941,
      "Ġcostly": 3942,
      "orts": 3943,
      "ories": 3944,
      "Ġpious": 3945,
      "Ġbeasts": 3946,
      "utions": 3947,
      "Ġexcept": 3948,
      "Ġyoked": 3949,
      "iled": 3950,
      "Ġspouse": 3951,
      "ĠVasus": 3952,
      "Ġministers": 3953,
      "Ġfrightful": 3954,
      "Ġdisappeared": 3955,
      "Ġconceal": 3956,
      "Ġrepaired": 3957,
      "Ġauth": 3958,
      "Ġoften": 3959,
      "Ġstep": 3960,
      "Ġresisted": 3961,
      "ounds": 3962,
      "Ġlocks": 3963,
      ",--\"": 3964,
      "Ġfriendship": 3965,
      "Ġproduce": 3966,
      "Ġsmiling": 3967,
      "Ġmarriage": 3968,
      "ĠKritavarman": 3969,
      "Ġmental": 3970,
      "ĠUnderstanding": 3971,
      "Ġprepared": 3972,
      "Ġalmost": 3973,
      "ĠNa": 3974,
      "Ġreside": 3975,
      "Ġtwang": 3976,
      "Ġfourth": 3977,
      "Ġimpro": 3978,
      "Ġchastisement": 3979,
      "Ġespeci": 3980,
      "ĠMeanwhile": 3981,
      "ĠBrahmacharya": 3982,
      "amayanti": 3983,
      "ait": 3984,
      "alted": 3985,
      "ĠManu": 3986,
      "ump": 3987,
      "Ġacting": 3988,
      "Ġmonke": 3989,
      "Ġcommenced": 3990,
      "Ġtremble": 3991,
      "atsu": 3992,
      "Ġattachment": 3993,
      "Ġassumed": 3994,
      "Ġgeneral": 3995,
      "Ġestablished": 3996,
      "Ġmentioned": 3997,
      "Ġimmediately": 3998,
      "vements": 3999,
      "wata": 4000,
      "atra": 4001,
      "orous": 4002,
      "Ġpay": 4003,
      "Ġbeyond": 4004,
      "used": 4005,
      "Ġextra": 4006,
      "Ġpossessions": 4007,
      "Ġinfuri": 4008,
      "Ġleader": 4009,
      "Ġtouched": 4010,
      "Ġrepresented": 4011,
      "Ġabsence": 4012,
      "Ġserp": 4013,
      "rell": 4014,
      "Ġwhence": 4015,
      "Ġumb": 4016,
      "ĠNe": 4017,
      "Ġoccup": 4018,
      "Ġversed": 4019,
      "Ġproduced": 4020,
      "ĠUtt": 4021,
      "Ġoblig": 4022,
      "Ġcrushed": 4023,
      "Ġsource": 4024,
      "cl": 4025,
      "iors": 4026,
      "minded": 4027,
      "Ġmult": 4028,
      "Ġlions": 4029,
      "iment": 4030,
      "ĠBab": 4031,
      "ĠDamayanti": 4032,
      "Ġvill": 4033,
      "Ġdisco": 4034,
      "ĠEn": 4035,
      "Ġfollows": 4036,
      "Ġequally": 4037,
      "ĠDeity": 4038,
      "Ġimpart": 4039,
      "Ġwomb": 4040,
      "Ġbelie": 4041,
      "Ġaccepted": 4042,
      "Ġdefeated": 4043,
      "ĠSiddhas": 4044,
      "Ġban": 4045,
      "Ġpit": 4046,
      "Ġinex": 4047,
      "ĠDark": 4048,
      "Ġspread": 4049,
      "Ġranks": 4050,
      "Ġactions": 4051,
      "Ġbestow": 4052,
      "Ġblind": 4053,
      "Ġseeking": 4054,
      "Ġwaiting": 4055,
      "ĠAshv": 4056,
      "ĠSraddha": 4057,
      "Ġdiadem": 4058,
      "Ġfearlessly": 4059,
      "Ġencountered": 4060,
      "Ġpresented": 4061,
      "Ġfeatures": 4062,
      "Ġtemp": 4063,
      "Ġworshipping": 4064,
      "ĠSuvala": 4065,
      "Ġcounsellors": 4066,
      "Ġumbrell": 4067,
      "ĠPr": 4068,
      "Ġrising": 4069,
      "ĠPraj": 4070,
      "Ġpassions": 4071,
      "Ġindicated": 4072,
      "vati": 4073,
      "Ġtill": 4074,
      "Ġtask": 4075,
      "Ġmill": 4076,
      "andh": 4077,
      "Ġcontain": 4078,
      "Ġadore": 4079,
      "Ġspake": 4080,
      "Ġknows": 4081,
      "iratha": 4082,
      "Ġcanst": 4083,
      "Ġbecometh": 4084,
      "Ġobserve": 4085,
      "Ġteeth": 4086,
      "Ġadvance": 4087,
      "Ġclasses": 4088,
      "ook": 4089,
      "Ġsway": 4090,
      "Ġble": 4091,
      "Ġbus": 4092,
      "ĠUnto": 4093,
      "Ġprey": 4094,
      "Ġcausing": 4095,
      "Ġwaited": 4096,
      "Ġentirely": 4097,
      "atthama": 4098,
      "Ġimpetuous": 4099,
      "Ġavoid": 4100,
      "ĠSattwa": 4101,
      "cent": 4102,
      "xes": 4103,
      "vera": 4104,
      "Ġconsists": 4105,
      "Ġ10": 4106,
      "Ġwander": 4107,
      "Ġmansion": 4108,
      "ĠOthers": 4109,
      "night": 4110,
      "rone": 4111,
      "string": 4112,
      "Ġkill": 4113,
      "Ġshout": 4114,
      "Ġknowest": 4115,
      "Ġperce": 4116,
      "Ġ11": 4117,
      "decked": 4118,
      "Ġconstell": 4119,
      "Ġspeeches": 4120,
      "Ġdaily": 4121,
      "Ġunrighteous": 4122,
      "Ġmalice": 4123,
      "Ġthrow": 4124,
      "inal": 4125,
      "Ġharm": 4126,
      "roach": 4127,
      "ĠSk": 4128,
      "ulent": 4129,
      "Ġdeserving": 4130,
      "ĠCon": 4131,
      "Ġrefer": 4132,
      "Ġmove": 4133,
      "Ġtruthful": 4134,
      "Ġdirection": 4135,
      "Ġscorcher": 4136,
      "ĠDasar": 4137,
      "ĠVibhatsu": 4138,
      "Ġbent": 4139,
      "Ġflying": 4140,
      "Ġmild": 4141,
      "ching": 4142,
      "apt": 4143,
      "udhana": 4144,
      "airs": 4145,
      "Ġhusbands": 4146,
      "Ġconchs": 4147,
      "Ġcommitted": 4148,
      "Ġdisease": 4149,
      "Ġfemale": 4150,
      "Ġwinged": 4151,
      "Ġbare": 4152,
      "Ġeas": 4153,
      "Ġexhaust": 4154,
      "Ġrise": 4155,
      "Ġabund": 4156,
      "ĠOnce": 4157,
      "Ġdiscus": 4158,
      "Ġcapital": 4159,
      "ĠYuyudhana": 4160,
      "Ġease": 4161,
      "Ġnon": 4162,
      "ĠMer": 4163,
      "Ġabounding": 4164,
      "Ġflight": 4165,
      "Ġreceive": 4166,
      "Ġincluding": 4167,
      "ĠVaisya": 4168,
      "repitude": 4169,
      "Ġsubtile": 4170,
      "Ġfrequ": 4171,
      "Ġsand": 4172,
      "Ġwert": 4173,
      "Ġears": 4174,
      "Ġbestowed": 4175,
      "Ġ12": 4176,
      "Ġfrag": 4177,
      "Ġsurely": 4178,
      "ĠVrih": 4179,
      "iable": 4180,
      "ned": 4181,
      "Ġhab": 4182,
      "Ġreduced": 4183,
      "ĠAksh": 4184,
      "ĠKap": 4185,
      "ulated": 4186,
      "ĠRo": 4187,
      "Ġends": 4188,
      "ĠFilled": 4189,
      "Ġcountless": 4190,
      "ĠSomadatta": 4191,
      "Ġindications": 4192,
      "Ġadopted": 4193,
      "Ġfaultless": 4194,
      "Ġrecollect": 4195,
      "Ġpolicy": 4196,
      "Ġinferior": 4197,
      "Ġfurther": 4198,
      "Ġeasily": 4199,
      "Ġcities": 4200,
      "ĠPrat": 4201,
      "Ġquality": 4202,
      "Ġspeaking": 4203,
      "Ġconsequences": 4204,
      "Ġhumility": 4205,
      "Ġforests": 4206,
      "Ġtribes": 4207,
      "ĠMatsyas": 4208,
      "Ġvirulent": 4209,
      "ĠMunis": 4210,
      "ĠAshvatthama": 4211,
      "ravas": 4212,
      "oms": 4213,
      "ĠKus": 4214,
      "ĠPass": 4215,
      "Ġexalted": 4216,
      "antic": 4217,
      "Ġrich": 4218,
      "ĠDhart": 4219,
      "Ġpossessing": 4220,
      "Ġneck": 4221,
      "Ġremn": 4222,
      "Ġdestroyer": 4223,
      "Ġcondition": 4224,
      "Ġlotuses": 4225,
      "Ġtirthas": 4226,
      "Ġfailed": 4227,
      "Ġindulge": 4228,
      "ĠBhagadatta": 4229,
      "Ġauthor": 4230,
      "Brahm": 4231,
      "Ġfron": 4232,
      "arv": 4233,
      "Ġposition": 4234,
      "cted": 4235,
      "Ġdeed": 4236,
      "ikas": 4237,
      "ĠYayati": 4238,
      "Ġmanifest": 4239,
      "Ġcontem": 4240,
      "Ġpenance": 4241,
      "Ġguil": 4242,
      "Ġsupported": 4243,
      "Ġsatis": 4244,
      "icient": 4245,
      "Ġdescribed": 4246,
      "Ġimplies": 4247,
      "cut": 4248,
      "ndra": 4249,
      "Ġrej": 4250,
      "ĠSing": 4251,
      "istic": 4252,
      "Ġresiding": 4253,
      "Ġboy": 4254,
      "Ġsomething": 4255,
      "Ġhappily": 4256,
      "Ġwrathful": 4257,
      "Ġlightness": 4258,
      "Ġinfinite": 4259,
      "Ġhelpless": 4260,
      "Ġconstituted": 4261,
      "Ġgratify": 4262,
      "Ġshrouded": 4263,
      "ining": 4264,
      "inity": 4265,
      "Ġmag": 4266,
      "anya": 4267,
      "Ġinner": 4268,
      "Ġless": 4269,
      "aped": 4270,
      "ĠMr": 4271,
      "Ġthereof": 4272,
      "Ġquiet": 4273,
      "upid": 4274,
      "agon": 4275,
      "aji": 4276,
      "akened": 4277,
      "Ġsixty": 4278,
      "Ġshowed": 4279,
      "Ġcompletely": 4280,
      "Ġfortune": 4281,
      "Ġ.": 4282,
      "Ġbit": 4283,
      "ĠHast": 4284,
      "Ġchall": 4285,
      "onsciousness": 4286,
      "Ġplacing": 4287,
      "Ġassuming": 4288,
      "Ġmeeting": 4289,
      "Ġappearance": 4290,
      "Ġconcentrated": 4291,
      "Ġbegotten": 4292,
      "Ġmale": 4293,
      "itri": 4294,
      "Ġaspect": 4295,
      "Ġbowed": 4296,
      "auti": 4297,
      "ructive": 4298,
      "Ġminds": 4299,
      "Ġroaring": 4300,
      "Ġoblations": 4301,
      "Ġwedded": 4302,
      "ĠDarkness": 4303,
      "Ġfragments": 4304,
      "eal": 4305,
      "uosity": 4306,
      "ince": 4307,
      "inary": 4308,
      "ĠSl": 4309,
      "ĠKas": 4310,
      "Ġvult": 4311,
      "ĠVali": 4312,
      "ĠMantras": 4313,
      "seless": 4314,
      "Ġdistinguished": 4315,
      "Ġpossession": 4316,
      "Ġusual": 4317,
      "Ġthoughts": 4318,
      "Ġoneself": 4319,
      "Ġvisit": 4320,
      "ĠUtanka": 4321,
      "Ġmonths": 4322,
      "Ġdescendant": 4323,
      "Ġfleet": 4324,
      "Ġfront": 4325,
      "He": 4326,
      "anim": 4327,
      "Ġlips": 4328,
      "Ġrender": 4329,
      "Ġgreatest": 4330,
      "Ġ\"'": 4331,
      "osm": 4332,
      "ĠGood": 4333,
      "Ġflower": 4334,
      "Ġsaluted": 4335,
      "Ġantagon": 4336,
      "ane": 4337,
      "Ġpaid": 4338,
      "ĠSa": 4339,
      "ĠKesh": 4340,
      "ĠBhur": 4341,
      "etu": 4342,
      "Ġraised": 4343,
      "Ġsoft": 4344,
      "Ġimpetuosity": 4345,
      "Ġpieces": 4346,
      "reaths": 4347,
      "Ġancestors": 4348,
      "Ġplunged": 4349,
      "Ġblew": 4350,
      "'.": 4351,
      "Ġleng": 4352,
      "irth": 4353,
      "Ġdef": 4354,
      "Ġmeant": 4355,
      "ĠHindu": 4356,
      "Ġcho": 4357,
      "Ġsole": 4358,
      "Ġresidence": 4359,
      "Ġpassing": 4360,
      "Ġnatural": 4361,
      "Ġleads": 4362,
      "Ġdifference": 4363,
      "ĠSamv": 4364,
      "acrifices": 4365,
      "Ġdamsel": 4366,
      "Ġobedient": 4367,
      "Ġpunish": 4368,
      "kas": 4369,
      "Ġdan": 4370,
      "Ġbears": 4371,
      "Ġshame": 4372,
      "Ġmem": 4373,
      "ĠMat": 4374,
      "Ġcomfor": 4375,
      "cibly": 4376,
      "Ġknoweth": 4377,
      "ized": 4378,
      "ensive": 4379,
      "Ġclu": 4380,
      "Ġfears": 4381,
      "Ġprincip": 4382,
      "Ġremains": 4383,
      "Ġdistrib": 4384,
      "Ġtransgress": 4385,
      "Ġdispelled": 4386,
      "Be": 4387,
      "Ye": 4388,
      "epe": 4389,
      "lif": 4390,
      "vata": 4391,
      "atic": 4392,
      "Ġharsh": 4393,
      "akuni": 4394,
      "ĠDis": 4395,
      "Ġprogress": 4396,
      "ize": 4397,
      "Ġfolly": 4398,
      "Ġassign": 4399,
      "Ġskies": 4400,
      "Ġconsumed": 4401,
      "Ġdeclare": 4402,
      "ĠViswamitra": 4403,
      "Ġdrums": 4404,
      "ĠChitrasena": 4405,
      "Ġperpetu": 4406,
      "akshm": 4407,
      "Ġassailed": 4408,
      "Ġmaintain": 4409,
      "Ġthigh": 4410,
      "Ġtor": 4411,
      "ĠAf": 4412,
      "Ġdestiny": 4413,
      "Ġ13": 4414,
      "Ġengage": 4415,
      "Ġabstention": 4416,
      "Ġbringing": 4417,
      "ĠKeshava": 4418,
      "Al": 4419,
      "Ġreasons": 4420,
      "Ġforb": 4421,
      "Ġamid": 4422,
      "ĠLakshm": 4423,
      "ĠCal": 4424,
      "arasandha": 4425,
      "Ġgoes": 4426,
      "Ġsurp": 4427,
      "Ġvisible": 4428,
      "ancy": 4429,
      "ÂĢÂĺ": 4430,
      "gration": 4431,
      "Ġriding": 4432,
      "Ġvehicles": 4433,
      "amadag": 4434,
      "Ġpatience": 4435,
      "Ġuproar": 4436,
      "ĠKuvera": 4437,
      "We": 4438,
      "ham": 4439,
      "Ġbound": 4440,
      "ony": 4441,
      "omach": 4442,
      "Ġaside": 4443,
      "erer": 4444,
      "iced": 4445,
      "Ġstring": 4446,
      "ĠPush": 4447,
      "achas": 4448,
      "ĠTamas": 4449,
      "Ġattainment": 4450,
      "ĠParthas": 4451,
      "ĠAgastya": 4452,
      "Ġmasses": 4453,
      "000": 4454,
      "Ġsyst": 4455,
      "Ġchecked": 4456,
      "Ġstrive": 4457,
      "Ġverses": 4458,
      "Ġlength": 4459,
      "ending": 4460,
      "fum": 4461,
      "inions": 4462,
      "Ġserve": 4463,
      "enance": 4464,
      "Ġparent": 4465,
      "Ġreward": 4466,
      "Ġshone": 4467,
      "Ġstomach": 4468,
      "Ġseats": 4469,
      "Ġintended": 4470,
      "Ġleast": 4471,
      "Ġabl": 4472,
      "Ġcollect": 4473,
      "Ġcontent": 4474,
      "Ġflow": 4475,
      "ager": 4476,
      "Ġblue": 4477,
      "Ġfelled": 4478,
      "Ġpoor": 4479,
      "ĠVaish": 4480,
      "ĠSavitri": 4481,
      "Ġlamentations": 4482,
      "pro": 4483,
      "ĠÃ¢": 4484,
      "anam": 4485,
      "which": 4486,
      "Ġdrawing": 4487,
      "Ġkeeping": 4488,
      "haustible": 4489,
      "Ġguilty": 4490,
      "Ġdry": 4491,
      "Ġbeat": 4492,
      "Ġforcibly": 4493,
      "estructible": 4494,
      "nage": 4495,
      "ĠMind": 4496,
      "ilo": 4497,
      "soph": 4498,
      "Ġinterest": 4499,
      "ension": 4500,
      "Ġdestructive": 4501,
      "ĠJarasandha": 4502,
      "ĠOnly": 4503,
      "ĠSub": 4504,
      "Ġhonest": 4505,
      "Ġsilence": 4506,
      "Ġdependent": 4507,
      "Ġtranslator": 4508,
      "gen": 4509,
      "sue": 4510,
      "atory": 4511,
      "oday": 4512,
      "Ġundergo": 4513,
      "Ġfruition": 4514,
      "ails": 4515,
      "Ġcursed": 4516,
      "Ġoriginal": 4517,
      "Ġvanquishing": 4518,
      "ojas": 4519,
      "Ġdenizens": 4520,
      "Ġessence": 4521,
      "rivalled": 4522,
      ").'": 4523,
      "Ġcamp": 4524,
      "Ġdim": 4525,
      "raged": 4526,
      "Ġlap": 4527,
      "Ġdisag": 4528,
      "Ġcarnage": 4529,
      "Ġintent": 4530,
      "ĠNara": 4531,
      "Ġincess": 4532,
      "ĠUs": 4533,
      "Ġfeathers": 4534,
      "Ġoccasions": 4535,
      "Ġconsuming": 4536,
      "eswara": 4537,
      "Ġbusiness": 4538,
      "Ġprincipal": 4539,
      "ilosoph": 4540,
      "wati": 4541,
      "Ġhom": 4542,
      "Ġfow": 4543,
      "Ġtus": 4544,
      "Ġlakes": 4545,
      "ĠOur": 4546,
      "ĠOcean": 4547,
      "utable": 4548,
      "Ġalas": 4549,
      "Ġcometh": 4550,
      "Ġenv": 4551,
      "lagration": 4552,
      "Ġdog": 4553,
      "ĠCom": 4554,
      "Ġovercome": 4555,
      "Ġmounted": 4556,
      "Ġsetting": 4557,
      "Ġdecl": 4558,
      "Ġdecrepitude": 4559,
      "Ġcarefully": 4560,
      "Ġinexhaustible": 4561,
      "Ġrejo": 4562,
      "By": 4563,
      "acked": 4564,
      "Ġhouses": 4565,
      "Ġbrahm": 4566,
      "Ġtort": 4567,
      "Ġcorn": 4568,
      "Ġgross": 4569,
      "ĠSau": 4570,
      "ĠSacrifice": 4571,
      "ĠKich": 4572,
      "ikes": 4573,
      "Ġweight": 4574,
      "Ġspect": 4575,
      "ortun": 4576,
      "Ġflo": 4577,
      "Ġplants": 4578,
      "Ġnorth": 4579,
      "Ġfirmly": 4580,
      "veloped": 4581,
      "Ġadorable": 4582,
      "Ġsubdued": 4583,
      ");": 4584,
      "Listen": 4585,
      "rist": 4586,
      "Ġrese": 4587,
      "ĠBath": 4588,
      "Ġfors": 4589,
      "ĠDw": 4590,
      "Ġdism": 4591,
      "Ġunrivalled": 4592,
      "lessed": 4593,
      "Ġanybody": 4594,
      "Ġsubtle": 4595,
      "Ġgrasp": 4596,
      "akshina": 4597,
      "ĠChar": 4598,
      "Ġdoubts": 4599,
      "Ġapart": 4600,
      "Ġlistened": 4601,
      "Ġbroke": 4602,
      "Ġreflecting": 4603,
      "Ġjourney": 4604,
      "upidity": 4605,
      "gated": 4606,
      "reh": 4607,
      "aries": 4608,
      "Ġcold": 4609,
      "Ġmarch": 4610,
      "Ġmixed": 4611,
      "aling": 4612,
      "ĠDaksha": 4613,
      "Ġaloud": 4614,
      "Ġmel": 4615,
      "Ġperfum": 4616,
      "Ġenjoying": 4617,
      "Ġachievements": 4618,
      "Ġwheels": 4619,
      "Ġignorant": 4620,
      "Ġdisappear": 4621,
      "Ġrenunciation": 4622,
      "Ġpalms": 4623,
      "Ġquarre": 4624,
      "ĠSankhya": 4625,
      "AT": 4626,
      "As": 4627,
      "GA": 4628,
      "You": 4629,
      "jas": 4630,
      "omasa": 4631,
      "Ġshape": 4632,
      "Ġve": 4633,
      "ĠWest": 4634,
      "Ġcarried": 4635,
      "Ġspir": 4636,
      "Ġslow": 4637,
      "reeable": 4638,
      "ĠJamadag": 4639,
      "Ġterror": 4640,
      "Ġdwelt": 4641,
      "Ġnarrat": 4642,
      "Ġtranscends": 4643,
      "Ġindividual": 4644,
      "Ġmagn": 4645,
      "Nar": 4646,
      "thod": 4647,
      "Ġfla": 4648,
      "Ġming": 4649,
      "ĠKali": 4650,
      "ival": 4651,
      "Ġstones": 4652,
      "ify": 4653,
      "ĠAndh": 4654,
      "Ġuns": 4655,
      "Ġarmies": 4656,
      "ĠTrig": 4657,
      "Ġincor": 4658,
      "Ġappointed": 4659,
      "ĠSatwata": 4660,
      "Ġoppos": 4661,
      "Ġreflected": 4662,
      "ĠSudras": 4663,
      "Ġvalour": 4664,
      "Ġdisplayed": 4665,
      "Ġtongue": 4666,
      "ĠMeru": 4667,
      "Ġhoney": 4668,
      "stika": 4669,
      "ĠOh": 4670,
      "iry": 4671,
      "Ġarise": 4672,
      "ĠViv": 4673,
      "Ġexh": 4674,
      "Ġunw": 4675,
      "ĠWhere": 4676,
      "unda": 4677,
      "Ġmeritorious": 4678,
      "Ġsett": 4679,
      "Ġattachments": 4680,
      "Ġeaten": 4681,
      "idden": 4682,
      "Ġcheck": 4683,
      "Ġvehicle": 4684,
      "Ġmesseng": 4685,
      "Ġdomestic": 4686,
      "Ġdissolution": 4687,
      "Ġespecially": 4688,
      "ĠSkanda": 4689,
      "Ġantagonist": 4690,
      "Ġsam": 4691,
      "Ġfilling": 4692,
      "Ġdish": 4693,
      "Ġlun": 4694,
      "ĠRen": 4695,
      "Ġraz": 4696,
      "Ġintellect": 4697,
      "Ġdelighted": 4698,
      "Ġnights": 4699,
      "ructed": 4700,
      "ĠGandharva": 4701,
      "Ġphilosoph": 4702,
      "Ġresolution": 4703,
      "Ġconsume": 4704,
      "Ġanxious": 4705,
      "Ġdisplaying": 4706,
      "Ġenquired": 4707,
      "Ġconclusion": 4708,
      "ĠVikarna": 4709,
      "ĠTrigart": 4710,
      "Vas": 4711,
      "ka": 4712,
      "Ġomn": 4713,
      "Ġtall": 4714,
      "Ġinformed": 4715,
      "Ġlater": 4716,
      "ift": 4717,
      "Ġsprang": 4718,
      "ĠFather": 4719,
      "Ġscar": 4720,
      "oja": 4721,
      "Ġcharity": 4722,
      "ounced": 4723,
      "ĠSingha": 4724,
      "Ġablutions": 4725,
      "di": 4726,
      "Ġsires": 4727,
      "Ġhunt": 4728,
      "edis": 4729,
      "Ġmatch": 4730,
      "chana": 4731,
      "Ġseeds": 4732,
      "Ġunb": 4733,
      "ĠFire": 4734,
      "Ġreference": 4735,
      "Ġguard": 4736,
      "Ġ21": 4737,
      "Ġachieving": 4738,
      "Ġaustere": 4739,
      "Ġabstain": 4740,
      "Ġhorsemen": 4741,
      "Ġwinds": 4742,
      "ĠAswins": 4743,
      "Ġtriple": 4744,
      "Ġdrinking": 4745,
      "Ġgranted": 4746,
      "Ġrecogn": 4747,
      "Ġsolicited": 4748,
      "Ġashes": 4749,
      "ĠDuhsasana": 4750,
      "Ġcovetousness": 4751,
      "Ġdisagreeable": 4752,
      "ĠBathing": 4753,
      "Bh": 4754,
      "Sauti": 4755,
      "god": 4756,
      "ih": 4757,
      "oly": 4758,
      "Ġsigh": 4759,
      "Ġwrit": 4760,
      "atis": 4761,
      "ening": 4762,
      "Ġgamb": 4763,
      "Ġlamp": 4764,
      "adhas": 4765,
      "ĠSiva": 4766,
      "Ġprost": 4767,
      "ectar": 4768,
      "osp": 4769,
      "ively": 4770,
      "Ġunknown": 4771,
      "Ġcool": 4772,
      "irable": 4773,
      "Ġgrave": 4774,
      "Ġreply": 4775,
      "Ġputting": 4776,
      "Ġelder": 4777,
      "Ġcherished": 4778,
      "Ġunfading": 4779,
      "Ġthirty": 4780,
      "Ġsummoned": 4781,
      "cer": 4782,
      "gas": 4783,
      "ndic": 4784,
      "ĠSum": 4785,
      "Ġaged": 4786,
      "Ġcop": 4787,
      "Ġascend": 4788,
      "Ġswall": 4789,
      "Ġaided": 4790,
      "Ġbelongs": 4791,
      "Ġfamous": 4792,
      "Ġmodest": 4793,
      "Ġdisregarding": 4794,
      "Ġdeparted": 4795,
      "Ġinstructions": 4796,
      "uing": 4797,
      "atma": 4798,
      "Ġgre": 4799,
      "ĠAp": 4800,
      "ghters": 4801,
      "ĠKum": 4802,
      "ivable": 4803,
      "Ġsto": 4804,
      "ĠMag": 4805,
      "attered": 4806,
      "Ġperv": 4807,
      "Ġperse": 4808,
      "Ġplant": 4809,
      "Ġ15": 4810,
      "Ġhosts": 4811,
      "Ġmoving": 4812,
      "Ġdistressed": 4813,
      "Ġpriests": 4814,
      "Ġloudly": 4815,
      "Ġpointed": 4816,
      "Ġmidd": 4817,
      "ĠKnowing": 4818,
      "mitted": 4819,
      "Ġextreme": 4820,
      "Ġsubjugated": 4821,
      "Ġcovering": 4822,
      "Ġresemble": 4823,
      "thus": 4824,
      "rem": 4825,
      "ency": 4826,
      "Ġmast": 4827,
      "Ġemancipation": 4828,
      "Ġeager": 4829,
      "Ġshield": 4830,
      "Ġdesirest": 4831,
      "anging": 4832,
      "Ġ17": 4833,
      "Ġcleans": 4834,
      "Ġconflagration": 4835,
      "Ġopportun": 4836,
      "Ġoccurs": 4837,
      "Ġexerc": 4838,
      "ĠPrajapati": 4839,
      "Ġspirits": 4840,
      "Ġtrou": 4841,
      "arged": 4842,
      "ĠKa": 4843,
      "ulation": 4844,
      "Ġconflict": 4845,
      "Ġmendic": 4846,
      "Ġuplif": 4847,
      "arters": 4848,
      "Ġrice": 4849,
      "Ġrod": 4850,
      "Ġearthly": 4851,
      "urning": 4852,
      "Ġincon": 4853,
      "Ġblare": 4854,
      "Ġexpress": 4855,
      "Ġbathing": 4856,
      "Ġornament": 4857,
      "ĠUnmanifest": 4858,
      "ĠAngiras": 4859,
      "Ġgaze": 4860,
      "Ġtrunk": 4861,
      "RIYA": 4862,
      "Ġremnant": 4863,
      "ĠBhuris": 4864,
      "ĠKichaka": 4865,
      "?\"": 4866,
      "Ġcased": 4867,
      "ananda": 4868,
      "Ġnectar": 4869,
      "ĠAcc": 4870,
      "ifying": 4871,
      "ĠRa": 4872,
      "Ġadvers": 4873,
      "Ġbehave": 4874,
      "ukha": 4875,
      "Ġrecitation": 4876,
      "Ġdaughters": 4877,
      "Ġcease": 4878,
      "ĠSankara": 4879,
      "Ġfinal": 4880,
      "ĠPrana": 4881,
      "ey": 4882,
      "mal": 4883,
      "Ġthrone": 4884,
      "Ġtalk": 4885,
      "Ġcited": 4886,
      "Ġpot": 4887,
      "Ġpale": 4888,
      "idim": 4889,
      "Ġchange": 4890,
      "ellig": 4891,
      "ĠGreat": 4892,
      "Ġresist": 4893,
      "ĠToday": 4894,
      "orns": 4895,
      "Ġpraises": 4896,
      "Ġencomp": 4897,
      "Why": 4898,
      "Ġdelighter": 4899,
      "Ġnumbering": 4900,
      "Ġserving": 4901,
      "Ġquestions": 4902,
      "Ġsaints": 4903,
      "Ġpromise": 4904,
      "ĠSwet": 4905,
      "Ġembraced": 4906,
      "dyumna": 4907,
      "faction": 4908,
      "cutta": 4909,
      "ĠJamadagni": 4910,
      "My": 4911,
      "Tell": 4912,
      "hini": 4913,
      "yavana": 4914,
      "int": 4915,
      "Ġsus": 4916,
      "Ġfro": 4917,
      "ĠKar": 4918,
      "Ġdeb": 4919,
      "ĠPura": 4920,
      "Ġsev": 4921,
      "Ġalt": 4922,
      "arest": 4923,
      "Ġblow": 4924,
      "Ġswelling": 4925,
      "abha": 4926,
      "Ġinstead": 4927,
      "Ġenjoys": 4928,
      "Ġmothers": 4929,
      "ĠShakuni": 4930,
      "Ġrobbers": 4931,
      "Ġwielders": 4932,
      "Ġsitu": 4933,
      "Ġoccurred": 4934,
      "ĠSarasvati": 4935,
      "Ġinstruments": 4936,
      "Ġjuice": 4937,
      "Ġimproper": 4938,
      "ĠCalcutta": 4939,
      "Ġnarrative": 4940,
      "gar": 4941,
      "haps": 4942,
      "Ġgig": 4943,
      "Ġlumin": 4944,
      "Ġallies": 4945,
      "ĠDuring": 4946,
      "Ġprogen": 4947,
      "ĠRavana": 4948,
      "ĠYou": 4949,
      "oka": 4950,
      "Ġnoble": 4951,
      "Ġimpelled": 4952,
      "icted": 4953,
      "arks": 4954,
      "who": 4955,
      "Ġproperty": 4956,
      "Ġ20": 4957,
      "anners": 4958,
      "ĠVaisyas": 4959,
      "ĠSrinjaya": 4960,
      "Ġrunning": 4961,
      "Ġhymns": 4962,
      "Ġremembering": 4963,
      "ĠBabaji": 4964,
      "inis": 4965,
      "ery": 4966,
      "ayani": 4967,
      "Ġvent": 4968,
      "Ġmethod": 4969,
      "ĠRit": 4970,
      "ordinary": 4971,
      "haum": 4972,
      "ritti": 4973,
      "ĠUma": 4974,
      "Ġgradu": 4975,
      "Ġlooks": 4976,
      "Ġ18": 4977,
      "Ġplease": 4978,
      "Ġwishest": 4979,
      "Ġceased": 4980,
      "Ġcountries": 4981,
      "Ġstead": 4982,
      "Ġvessel": 4983,
      "Narada": 4984,
      "Ġgigantic": 4985,
      "equ": 4986,
      "liness": 4987,
      "Ġhosp": 4988,
      "Ġbanners": 4989,
      "Ġina": 4990,
      "Ġinse": 4991,
      "imit": 4992,
      "ĠSe": 4993,
      "aketu": 4994,
      "iksh": 4995,
      "ilities": 4996,
      "Ġdisgu": 4997,
      "Ġamiable": 4998,
      "Ġsprings": 4999,
      "ĠEternal": 5000,
      "Ġcoats": 5001,
      "Ġjump": 5002,
      "Ġapprehe": 5003,
      "ĠVeda": 5004,
      "Ġassist": 5005,
      "Ġpassion": 5006,
      "acy": 5007,
      "Ġrestraining": 5008,
      "gnor": 5009,
      "ĠKaling": 5010,
      "Ġmaternal": 5011,
      "ĠKritavarma": 5012,
      "Ġidentical": 5013,
      "Ġincrease": 5014,
      "ĠAmongst": 5015,
      "Ġmillions": 5016,
      "her": 5017,
      "my": 5018,
      "Ġcust": 5019,
      "Ġcupidity": 5020,
      "ote": 5021,
      "ulted": 5022,
      "elled": 5023,
      "Ġradi": 5024,
      "cribed": 5025,
      "ĠCo": 5026,
      "angu": 5027,
      "Ġsmit": 5028,
      "Ġenjoyed": 5029,
      "restrained": 5030,
      "ĠSrutis": 5031,
      "ĠYogins": 5032,
      "Ġinhabited": 5033,
      "Ġfurious": 5034,
      "Ġconstellation": 5035,
      "ĠPassion": 5036,
      "dha": 5037,
      "Ġfeed": 5038,
      "anged": 5039,
      "Ġpost": 5040,
      "alava": 5041,
      "ayu": 5042,
      "avan": 5043,
      "aded": 5044,
      "ades": 5045,
      "Ġasso": 5046,
      "Ġshore": 5047,
      "oted": 5048,
      "aked": 5049,
      "aint": 5050,
      "ĠHidim": 5051,
      "Ġwhither": 5052,
      "Ġgover": 5053,
      "Ġaffliction": 5054,
      "Ġconcern": 5055,
      "ĠAlthough": 5056,
      "Ġabandoned": 5057,
      "ĠDestiny": 5058,
      "With": 5059,
      "Ġow": 5060,
      "Ġhours": 5061,
      "Ġfed": 5062,
      "Ġwhir": 5063,
      "Ġrenown": 5064,
      "versed": 5065,
      "utas": 5066,
      "ĠKart": 5067,
      "ĠKRIYA": 5068,
      "icing": 5069,
      "Ġstake": 5070,
      "Ġconv": 5071,
      "resh": 5072,
      "Ġherbs": 5073,
      "Ġcook": 5074,
      "Ġquarters": 5075,
      "Ġpraised": 5076,
      "Ġgraced": 5077,
      "Ġplight": 5078,
      "Ġnumbers": 5079,
      "Ġaccomplishing": 5080,
      "Ġtouching": 5081,
      "Ġgratifying": 5082,
      "ĠSaraswati": 5083,
      "Ġthirteen": 5084,
      "Ġimpetuously": 5085,
      "Ġrazor": 5086,
      "Ġscarce": 5087,
      "ĠBhurisravas": 5088,
      "HI": 5089,
      "ige": 5090,
      "ndara": 5091,
      "eric": 5092,
      "Ġfasts": 5093,
      "Ġcard": 5094,
      "Ġmad": 5095,
      "Ġmere": 5096,
      "ĠSiv": 5097,
      "ott": 5098,
      "Ġstart": 5099,
      "ĠYud": 5100,
      "achi": 5101,
      "Ġcontact": 5102,
      "Ġincom": 5103,
      "Ġsubst": 5104,
      "Ġstrewn": 5105,
      "Ġsays": 5106,
      "Ġinstalled": 5107,
      "Ġgratification": 5108,
      "Ġblazed": 5109,
      "Ġcaste": 5110,
      "Ġvictorious": 5111,
      "Ġsolar": 5112,
      "idding": 5113,
      "Ġfortnight": 5114,
      "Ġfrightened": 5115,
      "cont": 5116,
      "Ġtreasury": 5117,
      "Ġdragged": 5118,
      "Ġtorrent": 5119,
      "haumya": 5120,
      "AS": 5121,
      "Vyasa": 5122,
      "fold": 5123,
      "ze": 5124,
      "Ġthrown": 5125,
      "Ġowing": 5126,
      "Ġmist": 5127,
      "Ġgain": 5128,
      "ĠIgnor": 5129,
      "usions": 5130,
      "Ġvain": 5131,
      "ĠHrish": 5132,
      "Ġexile": 5133,
      "ĠMother": 5134,
      "udha": 5135,
      "Ġcharm": 5136,
      "Ġdesirable": 5137,
      "Ġresides": 5138,
      "Ġtwice": 5139,
      "Ġappertain": 5140,
      "Ġbetake": 5141,
      "Ġobservances": 5142,
      "Ġdifficulty": 5143,
      "ĠSomakas": 5144,
      "Ġimmort": 5145,
      "ĠSuka": 5146,
      "Beholding": 5147,
      "Ġweeping": 5148,
      "Ġsteps": 5149,
      "Ġmonkeys": 5150,
      "Ġclubs": 5151,
      "ĠPurandara": 5152,
      "tras": 5153,
      "vation": 5154,
      "Ġaut": 5155,
      "eral": 5156,
      "ision": 5157,
      "Ġcosm": 5158,
      "Ġmortal": 5159,
      "orm": 5160,
      "Ġrear": 5161,
      "Ġhealth": 5162,
      "idents": 5163,
      "amy": 5164,
      "ĠDwar": 5165,
      "ĠHir": 5166,
      "Ġherd": 5167,
      "Ġperception": 5168,
      "Ġattired": 5169,
      "Ġprecious": 5170,
      "mend": 5171,
      "Ġscattered": 5172,
      "Ġscimit": 5173,
      "Ġreciting": 5174,
      "Ġ23": 5175,
      "ĠHimal": 5176,
      "Ġcounsel": 5177,
      "Ġwretched": 5178,
      "Ġmusic": 5179,
      "Ġovertaken": 5180,
      "Ġtrunks": 5181,
      "hara": 5182,
      "human": 5183,
      "Ġholding": 5184,
      "rad": 5185,
      "Ġbeget": 5186,
      "Ġstained": 5187,
      "Ġyell": 5188,
      "elter": 5189,
      "Ġtherewith": 5190,
      "Ġdoor": 5191,
      "Ġrisen": 5192,
      "Ġaffluence": 5193,
      "cial": 5194,
      "ĠNot": 5195,
      "ĠLit": 5196,
      "olog": 5197,
      "Ġindiff": 5198,
      "Ġhappen": 5199,
      "bhava": 5200,
      "ĠKshetra": 5201,
      "ĠMaheswara": 5202,
      "Ġskin": 5203,
      "Ġkindness": 5204,
      "Ġinjure": 5205,
      "Ġwandering": 5206,
      "Ġquestioned": 5207,
      "Ġrepresent": 5208,
      "Ġfalsehood": 5209,
      "Ġhouseholder": 5210,
      "Ġyogi": 5211,
      "Ġbanner": 5212,
      "ĠLakshmana": 5213,
      "Ġincessantly": 5214,
      "nas": 5215,
      "Ġid": 5216,
      "Ġema": 5217,
      "cha": 5218,
      "Ġshelter": 5219,
      "isha": 5220,
      "ĠKhand": 5221,
      "Ġarises": 5222,
      "Ġseasons": 5223,
      "tern": 5224,
      "Ġtwin": 5225,
      "Ġcontented": 5226,
      "akshaka": 5227,
      "Ġascending": 5228,
      "Ġcommon": 5229,
      "Ġdevote": 5230,
      "anges": 5231,
      "Ġscent": 5232,
      "Ġexcess": 5233,
      "Ġproducing": 5234,
      "Ġsilver": 5235,
      "ĠKrita": 5236,
      "Ġdescribe": 5237,
      "Ġuntruth": 5238,
      "Ġerror": 5239,
      "Ġmatted": 5240,
      "ĠNeither": 5241,
      "ĠUttara": 5242,
      "bing": 5243,
      "Ġbeds": 5244,
      "asm": 5245,
      "Ġgard": 5246,
      "Ġexact": 5247,
      "ĠMand": 5248,
      "Ġcarry": 5249,
      "ĠUr": 5250,
      "flamed": 5251,
      "Ġpierce": 5252,
      "Ġcommands": 5253,
      "Ġpubl": 5254,
      "Ġbreak": 5255,
      "Ġinfant": 5256,
      "Ġceas": 5257,
      "Ġsufficient": 5258,
      "Ġfavourite": 5259,
      "Ġpurified": 5260,
      "Ġmysteries": 5261,
      "ĠDurm": 5262,
      "Ġserpent": 5263,
      "Ġfrequently": 5264,
      "Ġassigned": 5265,
      "Ġthighs": 5266,
      "eers": 5267,
      "Ġoil": 5268,
      "arana": 5269,
      "Ġbere": 5270,
      "Ġemancip": 5271,
      "Ġgate": 5272,
      "idable": 5273,
      "Ġforward": 5274,
      "Ġshine": 5275,
      "ĠPers": 5276,
      "apura": 5277,
      "Ġdoct": 5278,
      "Ġattacked": 5279,
      "ĠUl": 5280,
      "meared": 5281,
      "Ġswift": 5282,
      "Ġ16": 5283,
      "Ġsmoke": 5284,
      "Ġliterally": 5285,
      "Ġstudied": 5286,
      "Ġdominions": 5287,
      "Ġgrandsons": 5288,
      "Ġconstitutes": 5289,
      "laimed": 5290,
      "Ġtowns": 5291,
      "Ġcompanionship": 5292,
      "Ġjackal": 5293,
      "Ġpossible": 5294,
      "ĠVaishampayana": 5295,
      "Ġfowler": 5296,
      "Ġcardinal": 5297,
      "ĠHrishikes": 5298,
      "dana": 5299,
      "Ġcry": 5300,
      "anes": 5301,
      "lls": 5302,
      "let": 5303,
      "Ġlose": 5304,
      "ĠInt": 5305,
      "Ġkilling": 5306,
      "Ġstain": 5307,
      "Ġselect": 5308,
      "Ġenh": 5309,
      "Ġspouses": 5310,
      "Ġacted": 5311,
      "Ġaddress": 5312,
      "areth": 5313,
      "Ġheavens": 5314,
      "arashtras": 5315,
      "Ġbeloved": 5316,
      "Ġexpi": 5317,
      "ĠJanaka": 5318,
      "ĠAmeric": 5319,
      "ĠUniverse": 5320,
      "Ġcompanions": 5321,
      "ĠAsht": 5322,
      "ĠMaruts": 5323,
      "Ġorgans": 5324,
      "chool": 5325,
      "Ġextraordinary": 5326,
      "Ġcontempl": 5327,
      "Ġmemory": 5328,
      "Ġtusks": 5329,
      "ĠHidimva": 5330,
      "Markandeya": 5331,
      "breaths": 5332,
      "face": 5333,
      "Ġcattle": 5334,
      "irya": 5335,
      "ession": 5336,
      "ĠVirt": 5337,
      "alls": 5338,
      "udras": 5339,
      "ĠRef": 5340,
      "Ġdesiring": 5341,
      "rief": 5342,
      "Ġtread": 5343,
      "Ġpursued": 5344,
      "Ġsixth": 5345,
      "Ġslaughtering": 5346,
      "worthy": 5347,
      "Ġsandal": 5348,
      "ĠAfflicted": 5349,
      "Ġdeclar": 5350,
      "!--": 5351,
      "aco": 5352,
      "oral": 5353,
      "itting": 5354,
      "Ġarrange": 5355,
      "ĠMarkandeya": 5356,
      "iling": 5357,
      "Ġenraged": 5358,
      "Ġenveloped": 5359,
      "ĠGalava": 5360,
      "Ġresults": 5361,
      "ization": 5362,
      "ĠTaking": 5363,
      "Ġquant": 5364,
      "iction": 5365,
      "Ġhappens": 5366,
      "Ġrulers": 5367,
      "ĠChyavana": 5368,
      "Ġappropri": 5369,
      "Ġglo": 5370,
      "Ġverily": 5371,
      "Ġliveth": 5372,
      "Ġdepending": 5373,
      "Ġsummit": 5374,
      "Ġpainful": 5375,
      "ĠProceed": 5376,
      "ĠSukra": 5377,
      "ĠSraddhas": 5378,
      "Ġinhabit": 5379,
      "Ġmiddle": 5380,
      "Ġscarcely": 5381,
      ")?": 5382,
      ",âĢĻ": 5383,
      "ĠDhaumya": 5384,
      "Ġdem": 5385,
      "ĠPis": 5386,
      "ĠPleas": 5387,
      "ĠVin": 5388,
      "Ġcomfort": 5389,
      "iegated": 5390,
      "Ġrattle": 5391,
      "forts": 5392,
      "ĠConsciousness": 5393,
      "Ġfee": 5394,
      "Ġgifted": 5395,
      "Ġcomposed": 5396,
      "Ġrepent": 5397,
      "Ġpleasures": 5398,
      "Ġthinks": 5399,
      "Ġstrugg": 5400,
      "Ġhumanity": 5401,
      "without": 5402,
      "Ġreceiving": 5403,
      "Ġeffulgent": 5404,
      "Ġsleeping": 5405,
      "Ġgladden": 5406,
      "Ġpenetrating": 5407,
      "Ġabsor": 5408,
      "ĠYogin": 5409,
      "ĠDesirous": 5410,
      "Ġarrival": 5411,
      "Ġendeavour": 5412,
      "Ġfragrant": 5413,
      "Ġslowly": 5414,
      "ĠTrigartas": 5415,
      "Ġtorrents": 5416,
      "',": 5417,
      "gment": 5418,
      "sapt": 5419,
      "inn": 5420,
      "Ġbidding": 5421,
      "Ġrelying": 5422,
      "ĠSus": 5423,
      "Ġmemb": 5424,
      "ĠHorse": 5425,
      "ĠNow": 5426,
      "ĠTakshaka": 5427,
      "Ġformidable": 5428,
      "Ġflash": 5429,
      "Ġours": 5430,
      "Ġcommun": 5431,
      "attering": 5432,
      "whe": 5433,
      "Ġsixteen": 5434,
      "Ġtrack": 5435,
      "Ġriders": 5436,
      "Ġtempest": 5437,
      "Ġumbrella": 5438,
      "Duryodhana": 5439,
      "gone": 5440,
      "kar": 5441,
      "rise": 5442,
      "this": 5443,
      "Ġbones": 5444,
      "Ġpict": 5445,
      "ĠIts": 5446,
      "ĠSura": 5447,
      "ĠPe": 5448,
      "Ġalms": 5449,
      "ĠVy": 5450,
      "ilies": 5451,
      "ateful": 5452,
      "Ġafterwards": 5453,
      "Ġeffic": 5454,
      "ĠPrah": 5455,
      "Ġ22": 5456,
      "Ġseeks": 5457,
      "Ġblessings": 5458,
      "Ġexplain": 5459,
      "Ġappears": 5460,
      "Ġminister": 5461,
      "Ġcalf": 5462,
      "Ġwandered": 5463,
      "Ġrescuing": 5464,
      "Ġearned": 5465,
      "Ġtranquil": 5466,
      "ĠDesire": 5467,
      "ĠRajasu": 5468,
      "Ġdischarge": 5469,
      "Ġfatigue": 5470,
      "Ġbattling": 5471,
      "Ġrebirth": 5472,
      "Ġidea": 5473,
      "Ġdancing": 5474,
      "HE": 5475,
      "jna": 5476,
      "nk": 5477,
      "uro": 5478,
      "yam": 5479,
      "Ġwest": 5480,
      "Ġfav": 5481,
      "ĠAj": 5482,
      "anded": 5483,
      "Ġdetermin": 5484,
      "ĠPier": 5485,
      "Ġforehead": 5486,
      "Ġperish": 5487,
      "pleased": 5488,
      "Ġoverth": 5489,
      "Ġindestructible": 5490,
      "Ġpeaco": 5491,
      "Ġfalls": 5492,
      "Ġfiery": 5493,
      "Ġenjoyments": 5494,
      "Ġconstantly": 5495,
      "Ġexistent": 5496,
      "Ġconcili": 5497,
      "Ġsurrounding": 5498,
      "Ġlistening": 5499,
      "Ġinterp": 5500,
      "Ġuncon": 5501,
      "Ġsmiles": 5502,
      "Ġsmilingly": 5503,
      "ĠReg": 5504,
      "Ġportions": 5505,
      "Ġinfuriated": 5506,
      "Ġperpetuator": 5507,
      "ĠIgnorance": 5508,
      "pers": 5509,
      "Ġcree": 5510,
      "rol": 5511,
      "ĠDep": 5512,
      "Ġstrain": 5513,
      "Ġsection": 5514,
      "ĠYO": 5515,
      "Ġshoulders": 5516,
      "Ġroad": 5517,
      "fling": 5518,
      "Ġgoal": 5519,
      "ĠChedis": 5520,
      "hee": 5521,
      "Ġguided": 5522,
      "Ġreturning": 5523,
      "Ġsunk": 5524,
      "Ġbacks": 5525,
      "Ġjustice": 5526,
      "Ġassume": 5527,
      "Ġwinning": 5528,
      "Ġseizing": 5529,
      "Ġsalvation": 5530,
      "Ġweakness": 5531,
      "ikhandi": 5532,
      "Ġlaughed": 5533,
      "Ġfifth": 5534,
      "Ġplanets": 5535,
      "Ġstretched": 5536,
      "Ġendeav": 5537,
      "Ġsanctified": 5538,
      "Ġchallen": 5539,
      "ĠGoodness": 5540,
      "Alas": 5541,
      "Ġsystem": 5542,
      "bal": 5543,
      "fying": 5544,
      "Ġfine": 5545,
      "Ġcuri": 5546,
      "raised": 5547,
      "ceivable": 5548,
      "Ġlies": 5549,
      "Ġreality": 5550,
      "ĠSan": 5551,
      "ication": 5552,
      "Ġstands": 5553,
      "Ġsets": 5554,
      "ously": 5555,
      "que": 5556,
      "ĠHrid": 5557,
      "iles": 5558,
      "achin": 5559,
      "Ġboat": 5560,
      "ipa": 5561,
      "Ġblame": 5562,
      "Ġ14": 5563,
      "Ġruled": 5564,
      "Ġhostility": 5565,
      "Ġconversation": 5566,
      "Ġvariegated": 5567,
      "Ġspeaker": 5568,
      "adhi": 5569,
      "Ġfinding": 5570,
      "Ġinsult": 5571,
      "Ġinstrument": 5572,
      "griva": 5573,
      "ĠHastin": 5574,
      "Ġopportunity": 5575,
      "Ġgradually": 5576,
      "Ġhospit": 5577,
      "five": 5578,
      "tri": 5579,
      "Ġschool": 5580,
      "Ġfig": 5581,
      "Ġta": 5582,
      "itations": 5583,
      "Ġcongress": 5584,
      "Ġsees": 5585,
      "ruck": 5586,
      "Ġfond": 5587,
      "umb": 5588,
      "Ġuphold": 5589,
      "Ġslave": 5590,
      "ĠIndian": 5591,
      "Ġquivers": 5592,
      "Ġattent": 5593,
      "Ġeleven": 5594,
      "Ġprepar": 5595,
      "Ġconsistent": 5596,
      "Ġwouldst": 5597,
      "Ġcomprehe": 5598,
      "Ġrefers": 5599,
      "when": 5600,
      "Ġremark": 5601,
      "Ġafflicting": 5602,
      "Ġtruths": 5603,
      "Ġexceeding": 5604,
      "Ġblaze": 5605,
      "Ġefforts": 5606,
      "reta": 5607,
      "ĠShikhandi": 5608,
      "Ġencountering": 5609,
      "ĠWealth": 5610,
      "Ġaccepting": 5611,
      "Ġcharacteristic": 5612,
      "Ġapplaud": 5613,
      "Ġfortunate": 5614,
      "Ġwashed": 5615,
      "ĠValh": 5616,
      "Ġexperience": 5617,
      "Ġbelieve": 5618,
      "ĠAkshau": 5619,
      "ĠMatali": 5620,
      "ĠRenunciation": 5621,
      "Ġcuriosity": 5622,
      "dened": 5623,
      "those": 5624,
      "Ġses": 5625,
      "Ġhot": 5626,
      "Ġhaw": 5627,
      "Ġfate": 5628,
      "outhern": 5629,
      "Ġdense": 5630,
      "Ġlower": 5631,
      "These": 5632,
      "alks": 5633,
      "ereth": 5634,
      "Ġsend": 5635,
      "ĠJust": 5636,
      "Ġpreva": 5637,
      "Ġswans": 5638,
      "ability": 5639,
      "Ġsmiting": 5640,
      "Ġdivided": 5641,
      "Ġinvested": 5642,
      "Ġ24": 5643,
      "ĠVrishasena": 5644,
      "Ġleaders": 5645,
      "ĠDevayani": 5646,
      "Ġindulging": 5647,
      "Ġsubsist": 5648,
      "ĠDivine": 5649,
      "Ġgrinder": 5650,
      "Ġcoursing": 5651,
      "ĠSubala": 5652,
      "Ġuplifted": 5653,
      "Ġinconceivable": 5654,
      "ĠVirtue": 5655,
      "even": 5656,
      "lada": 5657,
      "then": 5658,
      "lli": 5659,
      "raid": 5660,
      "lets": 5661,
      "erent": 5662,
      "ĠKek": 5663,
      "Ġvicious": 5664,
      "Ġseas": 5665,
      "Ġmeets": 5666,
      "quainted": 5667,
      "soever": 5668,
      "Ġdeserves": 5669,
      "artana": 5670,
      "ĠWhe": 5671,
      "Ġendure": 5672,
      "Ġoffic": 5673,
      "Ġattack": 5674,
      "rastha": 5675,
      "ables": 5676,
      "Ġexisting": 5677,
      "Ġempt": 5678,
      "acle": 5679,
      "Ġconfer": 5680,
      "Ġconfidence": 5681,
      "Ġabstaining": 5682,
      "indhya": 5683,
      "Ġmansions": 5684,
      "Ġorgan": 5685,
      "Ġjudgment": 5686,
      "Ġapplied": 5687,
      "RA": 5688,
      "giving": 5689,
      "iber": 5690,
      "Ġwake": 5691,
      "nders": 5692,
      "Ġdance": 5693,
      "itary": 5694,
      "Ġnose": 5695,
      "avel": 5696,
      "ĠVala": 5697,
      "ĠHear": 5698,
      "ilt": 5699,
      "Ġupraised": 5700,
      "Ġrish": 5701,
      "ĠNiv": 5702,
      "ĠNever": 5703,
      "Ġtimid": 5704,
      "Ġbegat": 5705,
      "Ġaddicted": 5706,
      "ĠMadra": 5707,
      "Ġsurface": 5708,
      "Who": 5709,
      "Ġagreeably": 5710,
      "Ġsuffering": 5711,
      "Ġawake": 5712,
      "rossed": 5713,
      "Ġtempt": 5714,
      "Ġrescued": 5715,
      "Ġwalking": 5716,
      "ĠYadu": 5717,
      "Ġprinciples": 5718,
      "ĠHridika": 5719,
      "ded": 5720,
      "Ġhor": 5721,
      "Ġpair": 5722,
      "leep": 5723,
      "Ġeats": 5724,
      "ĠApp": 5725,
      "iration": 5726,
      "icide": 5727,
      "Ġwearing": 5728,
      "ĠRudras": 5729,
      "Ġuniting": 5730,
      "Ġsoil": 5731,
      "ption": 5732,
      "Ġcopp": 5733,
      "Ġcreate": 5734,
      "Ġboast": 5735,
      "versant": 5736,
      "Ġprescribed": 5737,
      "Ġrepress": 5738,
      "ĠChrist": 5739,
      "Ġteem": 5740,
      "Ġ29": 5741,
      "Ġdwells": 5742,
      "Ġ33": 5743,
      "Ġaccomplishments": 5744,
      "Ġmiserable": 5745,
      "itrav": 5746,
      "Ġvalue": 5747,
      "Ġrepairing": 5748,
      "Ġembodiment": 5749,
      "Ġwitnessed": 5750,
      "Ġtopics": 5751,
      "Ġtrembled": 5752,
      "Ġrouted": 5753,
      "Ġsettled": 5754,
      "Ġphilosophy": 5755,
      "Ġmodesty": 5756,
      "Ġcharming": 5757,
      "Ġceaseless": 5758,
      "Ġcontemplation": 5759,
      "ĠRajasuya": 5760,
      "Ġempty": 5761,
      "MA": 5762,
      "berg": 5763,
      "rata": 5764,
      "inent": 5765,
      "issed": 5766,
      "arat": 5767,
      "Ġpige": 5768,
      "Ġgent": 5769,
      "Ġlangu": 5770,
      "ĠSth": 5771,
      "Ġstick": 5772,
      "ĠVip": 5773,
      "ĠRel": 5774,
      "ĠRep": 5775,
      "Ġdiss": 5776,
      "Ġunmanifest": 5777,
      "Ġbonds": 5778,
      "ĠTw": 5779,
      "ahu": 5780,
      "Ġelement": 5781,
      "ĠJishnu": 5782,
      "ipayana": 5783,
      "Ġdelusion": 5784,
      "Ġsayest": 5785,
      "Ġsubjection": 5786,
      "Ġexcl": 5787,
      "Ġframe": 5788,
      "lecting": 5789,
      "ĠSalwa": 5790,
      "Ġassumes": 5791,
      "Ġsummer": 5792,
      "Ġinclined": 5793,
      "Ġmedic": 5794,
      "Ġrequest": 5795,
      "coming": 5796,
      "Ġexhausted": 5797,
      "ĠDhartarashtras": 5798,
      "Ġcontentment": 5799,
      "Ġbereft": 5800,
      "ĠWhether": 5801,
      "kara": 5802,
      "Ġsouth": 5803,
      "Ġcra": 5804,
      "Ġcult": 5805,
      "Ġded": 5806,
      "lection": 5807,
      "icate": 5808,
      "ĠDar": 5809,
      "ĠRich": 5810,
      "Ġadhere": 5811,
      "Ġrather": 5812,
      "ĠNature": 5813,
      "ĠEach": 5814,
      "Ġentities": 5815,
      "Ġflame": 5816,
      "uksh": 5817,
      "Ġtransformed": 5818,
      "Ġcompleted": 5819,
      "Ġspots": 5820,
      "Ġcoursed": 5821,
      "Ġattendants": 5822,
      "Ġentertained": 5823,
      "Ġwithdraw": 5824,
      "Ġwithdrawn": 5825,
      "Ġquarter": 5826,
      "Ġincurs": 5827,
      "merly": 5828,
      "Ġfuel": 5829,
      "Ġsenseless": 5830,
      "ĠDasarha": 5831,
      "ĠKapila": 5832,
      "Ġcomforted": 5833,
      "Ġincorrect": 5834,
      "Ġlunar": 5835,
      "Ġdebt": 5836,
      "ĠHrishikesa": 5837,
      "Ġinhabitants": 5838,
      "Go": 5839,
      "acious": 5840,
      "fit": 5841,
      "wish": 5842,
      "enberg": 5843,
      "Ġcy": 5844,
      "Ġcav": 5845,
      "anika": 5846,
      "Ġdon": 5847,
      "Ġeast": 5848,
      "Ġissued": 5849,
      "odes": 5850,
      "utenberg": 5851,
      "ĠPuru": 5852,
      "Ġwholly": 5853,
      "ĠYav": 5854,
      "Ġintox": 5855,
      "Ġconsult": 5856,
      "Ġsmile": 5857,
      "Ġinvoked": 5858,
      "Ġ28": 5859,
      "Ġcalm": 5860,
      "Ġattaches": 5861,
      "ĠProtect": 5862,
      "ĠSwami": 5863,
      "Ġdrunk": 5864,
      "Ġmystery": 5865,
      "Ġfatigued": 5866,
      "Ġabundant": 5867,
      "Ġspectators": 5868,
      "oll": 5869,
      "Ġcat": 5870,
      "Ġpop": 5871,
      "Ġinflamed": 5872,
      "Ġreins": 5873,
      "utation": 5874,
      "Ġvener": 5875,
      "ĠVide": 5876,
      "ĠBhava": 5877,
      "Ġenl": 5878,
      "Ġunst": 5879,
      "Ġoffici": 5880,
      "Ġnether": 5881,
      "inking": 5882,
      "Ġinvited": 5883,
      "Ġinstruction": 5884,
      "ĠPradyumna": 5885,
      "Ġdecay": 5886,
      "Ġchaste": 5887,
      "Ġimmutable": 5888,
      "Ġsuffered": 5889,
      "Ġsmiled": 5890,
      "Ġcalamities": 5891,
      "Ġwalked": 5892,
      "Ġversion": 5893,
      "Ġprayers": 5894,
      "Ġtrembling": 5895,
      "Ġconcealed": 5896,
      "Ġenvy": 5897,
      "Ġapartments": 5898,
      "Ġveget": 5899,
      "Ġexhib": 5900,
      "Ġencompassed": 5901,
      "Ġaltar": 5902,
      "ĠSivi": 5903,
      "Ġemaciated": 5904,
      "saptakas": 5905,
      "For": 5906,
      "cul": 5907,
      "ially": 5908,
      "li": 5909,
      "ply": 5910,
      "ties": 5911,
      "Ġwished": 5912,
      "Ġfill": 5913,
      "anic": 5914,
      "Ġghee": 5915,
      "Ġlab": 5916,
      "ĠSachi": 5917,
      "Ġstates": 5918,
      "ĠPer": 5919,
      "ĠVaj": 5920,
      "ĠHer": 5921,
      "ouring": 5922,
      "ĠRuk": 5923,
      "Ġenhan": 5924,
      "Ġunatt": 5925,
      "Ġspies": 5926,
      "Ġlean": 5927,
      "Ġlegs": 5928,
      "Ġelect": 5929,
      "ĠInf": 5930,
      "Ġusing": 5931,
      "Ġindepe": 5932,
      "ĠKuruksh": 5933,
      "Ġdevel": 5934,
      "Ġsuperiors": 5935,
      "Ġ26": 5936,
      "Ġ27": 5937,
      "Ġmarried": 5938,
      "Ġdawn": 5939,
      "Ġseparate": 5940,
      "Ġstreams": 5941,
      "Ġunclean": 5942,
      "Ġceremonies": 5943,
      "Ġflag": 5944,
      "Ġmasters": 5945,
      "Ġseventy": 5946,
      "ĠKalingas": 5947,
      "oqu": 5948,
      "Ġoper": 5949,
      "Ġfing": 5950,
      "oura": 5951,
      "orough": 5952,
      "asing": 5953,
      "ract": 5954,
      "ĠAru": 5955,
      "ĠSwa": 5956,
      "Ġalight": 5957,
      "Ġworks": 5958,
      "--'": 5959,
      "affling": 5960,
      "Ġundergone": 5961,
      "Ġdownp": 5962,
      "upa": 5963,
      "Ġgoeth": 5964,
      "ĠSugriva": 5965,
      "Ġterra": 5966,
      "Ġscattering": 5967,
      "aurava": 5968,
      "Ġ35": 5969,
      "Ġdisposed": 5970,
      "Ġextensive": 5971,
      "Ġproport": 5972,
      "Ġgrowth": 5973,
      "Ġtreasures": 5974,
      "Ġdropped": 5975,
      "Ġovertake": 5976,
      "Ġwilder": 5977,
      "Ġexterminated": 5978,
      "Ġprinciple": 5979,
      "ĠPersons": 5980,
      "ĠPisachas": 5981,
      "ĠPrahlada": 5982,
      "ĠKurukshetra": 5983,
      "Indra": 5984,
      "Sam": 5985,
      "po": 5986,
      "uc": 5987,
      "esides": 5988,
      "Those": 5989,
      "Ġreck": 5990,
      "ĠAdd": 5991,
      "irm": 5992,
      "ĠRes": 5993,
      "Ġcarrying": 5994,
      "Ġcoat": 5995,
      "Ġjeal": 5996,
      "Ġordered": 5997,
      "Ġrighteously": 5998,
      "Ġimpure": 5999,
      "Ġguise": 6000,
      "ĠAtri": 6001,
      "ĠAnanta": 6002,
      "Ġdwellers": 6003,
      "Ġconfusion": 6004,
      "Ġreverent": 6005,
      "ifications": 6006,
      "Ġextin": 6007,
      "Ġextent": 6008,
      "Ġmouths": 6009,
      "Ġacquireth": 6010,
      "Ġarrayed": 6011,
      "Ġbreaths": 6012,
      "ĠMagh": 6013,
      "ĠAdhiratha": 6014,
      "Ġmusical": 6015,
      "Ġcensure": 6016,
      "ĠSpace": 6017,
      "Behold": 6018,
      "Ġwilderness": 6019,
      "cular": 6020,
      "hil": 6021,
      "jit": 6022,
      "king": 6023,
      "vable": 6024,
      "Ġing": 6025,
      "Ġwounds": 6026,
      "Ġbh": 6027,
      "enom": 6028,
      "ounce": 6029,
      "arily": 6030,
      "Ġcu": 6031,
      "Ġpup": 6032,
      "Ġtop": 6033,
      "Ġissu": 6034,
      "ĠSoon": 6035,
      "ĠDwa": 6036,
      "ĠDakshina": 6037,
      "Ġdemer": 6038,
      "uses": 6039,
      "Ġenough": 6040,
      "ĠWater": 6041,
      "âĢĶ": 6042,
      "Ġcontinue": 6043,
      "enares": 6044,
      "Ġrelation": 6045,
      "Ġpassage": 6046,
      "Ġadvice": 6047,
      "Ġ32": 6048,
      "Ġservices": 6049,
      "Ġfreedom": 6050,
      "Ġdepends": 6051,
      "ĠAmrita": 6052,
      "Ġindication": 6053,
      "Ġtribute": 6054,
      "ĠPancala": 6055,
      "Ġdamsels": 6056,
      "Ġderived": 6057,
      "Ġdistinction": 6058,
      "Ġsustenance": 6059,
      "Ġfragrance": 6060,
      "ĠNaga": 6061,
      "Vasudeva": 6062,
      "ĠLiterally": 6063,
      "ĠProceeding": 6064,
      "Ġhospitality": 6065,
      "Ġsesame": 6066,
      "All": 6067,
      "ares": 6068,
      "bered": 6069,
      "pts": 6070,
      "ĠQ": 6071,
      "Ġthorough": 6072,
      "Ġbrief": 6073,
      "aratha": 6074,
      "Ġcried": 6075,
      "Ġpac": 6076,
      "itate": 6077,
      "Ġkarma": 6078,
      "ĠBenares": 6079,
      "ĠSadh": 6080,
      "Ġspent": 6081,
      "Ġactually": 6082,
      "urely": 6083,
      "Ġbook": 6084,
      "Ġbowing": 6085,
      "Ġdevice": 6086,
      "Ġretired": 6087,
      "Ġthinkest": 6088,
      "Ġpriv": 6089,
      "ccessible": 6090,
      "Ġliqu": 6091,
      "Ġclothes": 6092,
      "Ġyielding": 6093,
      "fortun": 6094,
      "Ġfishes": 6095,
      "ĠDuhsh": 6096,
      "Ġviolence": 6097,
      "ĠYajn": 6098,
      "Ġmatters": 6099,
      "Ġauthority": 6100,
      "At": 6101,
      "Even": 6102,
      "ium": 6103,
      "thi": 6104,
      "Ġwaves": 6105,
      "Ġfest": 6106,
      "Ġmort": 6107,
      "see": 6108,
      "ĠKala": 6109,
      "Ġvit": 6110,
      "Ġconve": 6111,
      "Ġchant": 6112,
      "ĠWor": 6113,
      "taining": 6114,
      "Ġrange": 6115,
      "eously": 6116,
      "version": 6117,
      "Ġprotects": 6118,
      "Ġconscious": 6119,
      "Ġbirths": 6120,
      "Ġhole": 6121,
      "Ġbeholds": 6122,
      "Ġpaths": 6123,
      "Ġsimple": 6124,
      "Ġtreated": 6125,
      "ĠIsland": 6126,
      "ĠOrd": 6127,
      "Ġascertaining": 6128,
      "ĠSpirit": 6129,
      "Ġsexual": 6130,
      "Ġbrilli": 6131,
      "Ġfulfilled": 6132,
      "Ġbitter": 6133,
      "Ġcleansing": 6134,
      "ĠVinata": 6135,
      "ĠSusarman": 6136,
      "Ġmembers": 6137,
      "wheels": 6138,
      "Jan": 6139,
      "ien": 6140,
      "oes": 6141,
      "inces": 6142,
      "Ġfury": 6143,
      "Ġmouse": 6144,
      "Ġdied": 6145,
      "Ġtot": 6146,
      "ley": 6147,
      "Ġerect": 6148,
      "Ġgrew": 6149,
      "ĠAch": 6150,
      "ches": 6151,
      "ayan": 6152,
      "aker": 6153,
      "ĠPin": 6154,
      "Ġmeal": 6155,
      "ĠMal": 6156,
      "ĠYaksha": 6157,
      "arding": 6158,
      "ĠGutenberg": 6159,
      "Ġafraid": 6160,
      "iously": 6161,
      "Ġneg": 6162,
      "opes": 6163,
      "oint": 6164,
      "Ġfourteen": 6165,
      "ĠSatyavati": 6166,
      "Ġcounter": 6167,
      "Ġcharioteers": 6168,
      "handed": 6169,
      "Ġtrav": 6170,
      "Ġearly": 6171,
      "Ġfails": 6172,
      "Ġyouthful": 6173,
      "arshana": 6174,
      "Ġinstructed": 6175,
      "Ġcentre": 6176,
      "Ġcrooked": 6177,
      "Ġvigorous": 6178,
      "ĠUsanas": 6179,
      "Ġperfumes": 6180,
      "ĠSweta": 6181,
      "Ġinaccessible": 6182,
      "ĠHastinapura": 6183,
      "Ġjealous": 6184,
      "ES": 6185,
      "IS": 6186,
      "father": 6187,
      "Ġ[": 6188,
      "Ġhips": 6189,
      "Ġtaught": 6190,
      "Ġcrem": 6191,
      "Ġdict": 6192,
      "Ġpil": 6193,
      "Ġlosing": 6194,
      "Ġisland": 6195,
      "aled": 6196,
      "avakra": 6197,
      "ĠSaying": 6198,
      "otion": 6199,
      "Ġexternal": 6200,
      "Ġamaz": 6201,
      "Ġleather": 6202,
      "Ġabodes": 6203,
      "Ġimper": 6204,
      "Ġequival": 6205,
      "Ġslender": 6206,
      "Ġeffort": 6207,
      "Ġ25": 6208,
      "Ġblessing": 6209,
      "Ġ30": 6210,
      "aternal": 6211,
      "Ġshowing": 6212,
      "ĠDhrishtaketu": 6213,
      "Ġavar": 6214,
      "Ġforgive": 6215,
      "Ġconsidered": 6216,
      "Ġdragging": 6217,
      "Ġreferred": 6218,
      "Ġparents": 6219,
      "Ġmessenger": 6220,
      "Ġgambling": 6221,
      "Ġquantity": 6222,
      "ĠDeprived": 6223,
      "Oh": 6224,
      "dest": 6225,
      "host": 6226,
      "ient": 6227,
      "ji": 6228,
      "know": 6229,
      "Ġsad": 6230,
      "Ġserved": 6231,
      "Ġdign": 6232,
      "Ġwight": 6233,
      "itive": 6234,
      "Ġbells": 6235,
      "Ġrewards": 6236,
      "ĠAstika": 6237,
      "imo": 6238,
      "Ġshed": 6239,
      "ĠKamv": 6240,
      "Ġstrange": 6241,
      "ĠPul": 6242,
      "resent": 6243,
      "Ġnotes": 6244,
      "udes": 6245,
      "umber": 6246,
      "Ġobey": 6247,
      "Ġdeser": 6248,
      "ĠNone": 6249,
      "ĠEng": 6250,
      "ictions": 6251,
      "Ġattended": 6252,
      "Ġplain": 6253,
      "airing": 6254,
      "Ġfiercely": 6255,
      "Ġglances": 6256,
      "ĠPrav": 6257,
      "Ġgroup": 6258,
      "Ġstudents": 6259,
      "Ġshowered": 6260,
      "Ġoppress": 6261,
      "Ġreads": 6262,
      "Ġsubsisting": 6263,
      "Ġenquire": 6264,
      "ĠMaha": 6265,
      "Ġcorrectly": 6266,
      "Ġsigns": 6267,
      "Ġexerting": 6268,
      "Ġexpectation": 6269,
      "Ġvillage": 6270,
      "Ġautum": 6271,
      "ĠKhandava": 6272,
      "ĠDuhshasana": 6273,
      "Ġequivalent": 6274,
      "greg": 6275,
      "Ġthread": 6276,
      "Ġbos": 6277,
      "Ġbree": 6278,
      "Ġcrossed": 6279,
      "Ġiniti": 6280,
      "Ġtom": 6281,
      "Ġbending": 6282,
      "ceans": 6283,
      "seth": 6284,
      "ĠSA": 6285,
      "ĠSacrifices": 6286,
      "urb": 6287,
      "ĠKama": 6288,
      "Ġvari": 6289,
      "Ġweakened": 6290,
      "ĠMA": 6291,
      "pping": 6292,
      "Ġflowed": 6293,
      "yasachin": 6294,
      "Ġprotectors": 6295,
      "Ġdevotee": 6296,
      "Ġsmell": 6297,
      "Ġremoved": 6298,
      "Ġscen": 6299,
      "uki": 6300,
      "Ġimpress": 6301,
      "Ġinstance": 6302,
      "Ġbelow": 6303,
      "Ġdraw": 6304,
      "Ġimmortal": 6305,
      "ĠAdityas": 6306,
      "Ġfruitless": 6307,
      "parable": 6308,
      "adhara": 6309,
      "Ġcranes": 6310,
      "ĠStruck": 6311,
      "Ġfeeling": 6312,
      "Ġmarks": 6313,
      "Ġdispel": 6314,
      "Ġvanity": 6315,
      "ĠSavyasachin": 6316,
      "Ġascertained": 6317,
      "Ġobedience": 6318,
      "Ġmessage": 6319,
      "Ġcrossing": 6320,
      "Ġcourses": 6321,
      "Ġceremony": 6322,
      "Ġvultures": 6323,
      "ĠPushkara": 6324,
      "ĠKaike": 6325,
      "Ġgentle": 6326,
      "Ex": 6327,
      "iance": 6328,
      "nat": 6329,
      "ux": 6330,
      "uries": 6331,
      "čĊ": 6332,
      "Ġhol": 6333,
      "Ġbrings": 6334,
      "ales": 6335,
      "ĠBesides": 6336,
      "ĠSans": 6337,
      "Ġstro": 6338,
      "ĠYam": 6339,
      "Ġadh": 6340,
      "Ġunm": 6341,
      "Ġunch": 6342,
      "Ġutmost": 6343,
      "nihil": 6344,
      "Ġapproved": 6345,
      "Ġrests": 6346,
      "Ġkingdoms": 6347,
      "ĠProject": 6348,
      "Ġgraceful": 6349,
      "Ġfinished": 6350,
      "Ġfeelings": 6351,
      "Ġmarked": 6352,
      "Ġcrushing": 6353,
      "Ġvanished": 6354,
      "Ġmentally": 6355,
      "ĠAdhy": 6356,
      "Ġdistinct": 6357,
      "Ġsporting": 6358,
      "Ġpursuit": 6359,
      "Ġvigour": 6360,
      "skilled": 6361,
      "arvan": 6362,
      "Ġdismissed": 6363,
      "ikshit": 6364,
      "ĠUluka": 6365,
      "cle": 6366,
      "Ġsir": 6367,
      "Ġtest": 6368,
      "Ġdig": 6369,
      "Ġdren": 6370,
      "Ġlore": 6371,
      "omed": 6372,
      "Ġshown": 6373,
      "Ġsafe": 6374,
      "Ġworn": 6375,
      "Ġexcell": 6376,
      "Ġcham": 6377,
      "Ġdisso": 6378,
      "Ġdisun": 6379,
      "Ġunh": 6380,
      "Ġraces": 6381,
      "Ġsports": 6382,
      "arta": 6383,
      "ĠTru": 6384,
      "rinks": 6385,
      "avasu": 6386,
      "Ġadded": 6387,
      "Ġpref": 6388,
      "eply": 6389,
      "Ġrelated": 6390,
      "Ġrelating": 6391,
      "Ġproperties": 6392,
      "Ġnumberless": 6393,
      "Ġsimply": 6394,
      "Ġearning": 6395,
      "Ġinnoc": 6396,
      "Ġrequire": 6397,
      "ĠMarutta": 6398,
      "Ġbarley": 6399,
      "Ġthrowing": 6400,
      "roaching": 6401,
      "Ġdimin": 6402,
      "Sambhava": 6403,
      "ĠSadhyas": 6404,
      "Ġpilgri": 6405,
      "TA": 6406,
      "noon": 6407,
      "onder": 6408,
      "wat": 6409,
      "there": 6410,
      "Ġape": 6411,
      "Ġsouthern": 6412,
      "Ġpet": 6413,
      "Ġinflict": 6414,
      "ĠOb": 6415,
      "vering": 6416,
      "uddh": 6417,
      "Ġrit": 6418,
      "cience": 6419,
      "ĠEk": 6420,
      "ensible": 6421,
      "Ġattem": 6422,
      "arasara": 6423,
      "Ġapparent": 6424,
      "ĠBefore": 6425,
      "Ġthroughout": 6426,
      "Ġrelate": 6427,
      "Ġnorthern": 6428,
      "Ġhumili": 6429,
      "Ġrecourse": 6430,
      "Ġprime": 6431,
      "Ġexpressed": 6432,
      "Ġdifficulties": 6433,
      "Ġprofusion": 6434,
      "Ġwelcome": 6435,
      "Ġgenerally": 6436,
      "Ġsaluting": 6437,
      "Ġscorched": 6438,
      "Ġvalu": 6439,
      "Ġdeparture": 6440,
      "ĠSaradw": 6441,
      "Ġgetting": 6442,
      "Ġextending": 6443,
      "ĠEverything": 6444,
      "Ġobliged": 6445,
      "Ġcollected": 6446,
      "Ġcustom": 6447,
      "Ġcreepers": 6448,
      "Sir": 6449,
      "creat": 6450,
      "ec": 6451,
      "ipt": 6452,
      "rity": 6453,
      "rine": 6454,
      "yot": 6455,
      "Ġaversion": 6456,
      "Ġwol": 6457,
      "Ġwounded": 6458,
      "isers": 6459,
      "Ġgather": 6460,
      "adv": 6461,
      "Ġasleep": 6462,
      "urance": 6463,
      "ically": 6464,
      "terior": 6465,
      "Ġgreatness": 6466,
      "Ġupwards": 6467,
      "Ġunre": 6468,
      "Ġpercept": 6469,
      "Ġcooked": 6470,
      "ensions": 6471,
      "ĠArrived": 6472,
      "Ġundert": 6473,
      "Ġswoon": 6474,
      "what": 6475,
      "ĠDeeply": 6476,
      "Ġskins": 6477,
      "Ġtender": 6478,
      "Ġcareered": 6479,
      "Ġadopting": 6480,
      "Ġstraw": 6481,
      "Ġprovinces": 6482,
      "Ġcapt": 6483,
      "Ġavoided": 6484,
      "Ġcentury": 6485,
      "Ġaffairs": 6486,
      "Ġgeneraliss": 6487,
      "Ġimparted": 6488,
      "Ġmagnanim": 6489,
      "ĠSanskrit": 6490,
      ".)": 6491,
      "hot": 6492,
      "lish": 6493,
      "Ġthri": 6494,
      "arg": 6495,
      "Ġdrinks": 6496,
      "Ġpear": 6497,
      "Ġnet": 6498,
      "iments": 6499,
      "Ġheap": 6500,
      "ĠSer": 6501,
      "idently": 6502,
      "Ġshining": 6503,
      "ĠKos": 6504,
      "ĠPund": 6505,
      "Ġextinguished": 6506,
      "oursed": 6507,
      "ember": 6508,
      "ansa": 6509,
      "Ġquite": 6510,
      "Ġgoodness": 6511,
      "Ġattaineth": 6512,
      "ailing": 6513,
      "Ġgiveth": 6514,
      "Ġprimal": 6515,
      "Ġlighted": 6516,
      "Ġcomplet": 6517,
      "Ġcommander": 6518,
      "ertion": 6519,
      "Ġinjured": 6520,
      "Ġaffected": 6521,
      "Ġfamilies": 6522,
      "Ġsimilarly": 6523,
      "Ġcharacterised": 6524,
      "ĠDaitya": 6525,
      "ĠMatsya": 6526,
      "Ġfifty": 6527,
      "Ġseniors": 6528,
      "Ġfunctions": 6529,
      "Ġinfuriate": 6530,
      "Ġvillages": 6531,
      "Ġopposite": 6532,
      "cerity": 6533,
      "Ġexercise": 6534,
      "Ġgovern": 6535,
      "Ġindifferent": 6536,
      "Ġarrangements": 6537,
      "ĠPleasure": 6538,
      "Ġindependent": 6539,
      "Ġgeneralissimo": 6540,
      "12": 6541,
      "ners": 6542,
      "rance": 6543,
      "Ġsmeared": 6544,
      "Ġhall": 6545,
      "Ġhorns": 6546,
      "edged": 6547,
      "Ġbal": 6548,
      "Ġbank": 6549,
      "araka": 6550,
      "Ġpron": 6551,
      "ĠSita": 6552,
      "ivest": 6553,
      "ivya": 6554,
      "ĠPen": 6555,
      "Ġvom": 6556,
      "ĠVich": 6557,
      "iked": 6558,
      "Ġspl": 6559,
      "onscious": 6560,
      "Ġperhaps": 6561,
      "Ġcanni": 6562,
      "Ġspecial": 6563,
      "Ġattainable": 6564,
      "agara": 6565,
      "Ġrespected": 6566,
      "Ġscion": 6567,
      "Ġperforms": 6568,
      "Ġclever": 6569,
      "Ġrub": 6570,
      "ĠAnu": 6571,
      "Ġausterest": 6572,
      "Ġscient": 6573,
      "Ġseize": 6574,
      "Ġpromised": 6575,
      "ĠSindhu": 6576,
      "Ġsupporting": 6577,
      "Ġunrighteousness": 6578,
      "Ġlieth": 6579,
      "ĠChandala": 6580,
      "ravana": 6581,
      "ricult": 6582,
      "Ġconsideration": 6583,
      "Ġtorto": 6584,
      "Ġomnis": 6585,
      "Ġgreet": 6586,
      "Ġtomorrow": 6587,
      "Ġcompletion": 6588,
      "Karna": 6589,
      "On": 6590,
      "fall": 6591,
      "hu": 6592,
      "ming": 6593,
      "ock": 6594,
      "reading": 6595,
      "Ġhar": 6596,
      "Ġpred": 6597,
      "Ġpaternal": 6598,
      "Ġtoil": 6599,
      "Ġlines": 6600,
      "staff": 6601,
      "ĠSala": 6602,
      "aku": 6603,
      "utsu": 6604,
      "ĠPa": 6605,
      "uls": 6606,
      "Ġseest": 6607,
      "Ġann": 6608,
      "Ġannihil": 6609,
      "ĠMle": 6610,
      "uddha": 6611,
      "Ġmanif": 6612,
      "Ġcoll": 6613,
      "Ġcontinually": 6614,
      "Ġproceeds": 6615,
      "ĠVasuki": 6616,
      "Ġassured": 6617,
      "Ġpursue": 6618,
      "Ġdestroys": 6619,
      "Ġinstantly": 6620,
      "ĠFormerly": 6621,
      "ĠAgn": 6622,
      "Ġrestraints": 6623,
      "icians": 6624,
      "Ġmotives": 6625,
      "Ġnarrated": 6626,
      "Ġavoiding": 6627,
      "Ġhungry": 6628,
      "Ġdiseases": 6629,
      "Ġjackals": 6630,
      "Ġslightest": 6631,
      "ĠCharanas": 6632,
      "Ġventure": 6633,
      "Ġimmortality": 6634,
      "Ġpublic": 6635,
      "Ġemancipated": 6636,
      "Ġexpiation": 6637,
      "Ġofficers": 6638,
      "Ġpigeon": 6639,
      "ĠRelig": 6640,
      "wishers": 6641,
      "Ġvitals": 6642,
      "kind": 6643,
      "soul": 6644,
      "Ġdressed": 6645,
      "ĠKaus": 6646,
      "Ġsung": 6647,
      "ĠMaya": 6648,
      "ĠYet": 6649,
      "arded": 6650,
      "Ġamb": 6651,
      "Ġrite": 6652,
      "Ġcreates": 6653,
      "Ġcreator": 6654,
      "ossible": 6655,
      "Ġpreced": 6656,
      "ĠKrishnas": 6657,
      "ĠChast": 6658,
      "Ġhumble": 6659,
      "ĠMahat": 6660,
      "Ġtransg": 6661,
      "Ġparty": 6662,
      "Ġresting": 6663,
      "Ġconstant": 6664,
      "Ġdiscoursed": 6665,
      "While": 6666,
      "Ġ36": 6667,
      "Ġacceptance": 6668,
      "ashed": 6669,
      "Ġtravel": 6670,
      "endra": 6671,
      "Ġinspiring": 6672,
      "Ġdispelling": 6673,
      "Ġdisregarded": 6674,
      "Ġeffects": 6675,
      "Ġgazed": 6676,
      "Ġpunishment": 6677,
      "ĠRitw": 6678,
      "ĠKshetrajna": 6679,
      "ĠValhika": 6680,
      "Ġinnocent": 6681,
      "Lomasa": 6682,
      "No": 6683,
      "lay": 6684,
      "unto": 6685,
      "onge": 6686,
      "Ġfil": 6687,
      "Ġcatch": 6688,
      "Ġpiety": 6689,
      "Ġbew": 6690,
      "Ġbearer": 6691,
      "Ġnin": 6692,
      "ayudha": 6693,
      "avrata": 6694,
      "ĠSm": 6695,
      "utting": 6696,
      "Ġstaff": 6697,
      "Ġarisen": 6698,
      "ĠVad": 6699,
      "Ġnoted": 6700,
      "uming": 6701,
      "cken": 6702,
      "ĠGanges": 6703,
      "rishna": 6704,
      "ĠJaya": 6705,
      "Ġenters": 6706,
      "Ġbloss": 6707,
      "Ġdeliber": 6708,
      "Ġtremend": 6709,
      "Ġtruthfulness": 6710,
      "Ġhook": 6711,
      "Ġbelief": 6712,
      "Ġaccordingly": 6713,
      "Ġblessedness": 6714,
      "Ġevils": 6715,
      "Ġservant": 6716,
      "Ġinjun": 6717,
      "Ġturning": 6718,
      "Ġresolve": 6719,
      "Ġfinally": 6720,
      "ĠCreation": 6721,
      "Ġsteady": 6722,
      "Ġstayed": 6723,
      "Ġpropiti": 6724,
      "Ġcruelty": 6725,
      "Ġtranscending": 6726,
      "amvusha": 6727,
      "Ġscorching": 6728,
      "Ġseparated": 6729,
      "Ġprayer": 6730,
      "Ġdeceitful": 6731,
      "Ġdisguise": 6732,
      "Ġdeclarations": 6733,
      "Ġvenerable": 6734,
      "Ġterrace": 6735,
      ")!": 6736,
      "One": 6737,
      "cch": 6738,
      "dent": 6739,
      "grown": 6740,
      "sa": 6741,
      "Ġax": 6742,
      "Ġoceans": 6743,
      "Ġtorn": 6744,
      "Ġinform": 6745,
      "ray": 6746,
      "Ġgro": 6747,
      "Ġlux": 6748,
      "irst": 6749,
      "ĠBlessed": 6750,
      "idi": 6751,
      "ĠKail": 6752,
      "ĠHar": 6753,
      "aping": 6754,
      "ĠMount": 6755,
      "ĠRem": 6756,
      "Ġupper": 6757,
      "inding": 6758,
      "Ġleg": 6759,
      "Ġperman": 6760,
      "Ġresp": 6761,
      "Ġimag": 6762,
      "Ġowning": 6763,
      "Ġloc": 6764,
      "assing": 6765,
      "olen": 6766,
      "Ġpersonal": 6767,
      "angled": 6768,
      "Ġrefused": 6769,
      "their": 6770,
      "ukunda": 6771,
      "ĠGandhamad": 6772,
      "Ġrestored": 6773,
      "Ġguide": 6774,
      "Ġbreaking": 6775,
      "Ġdriven": 6776,
      "Ġcircle": 6777,
      "Ġforgiving": 6778,
      "Ġrenoun": 6779,
      "Ġsanction": 6780,
      "ĠYuyutsu": 6781,
      "Ġarriving": 6782,
      "Ġbride": 6783,
      "Ġdistributed": 6784,
      "rehension": 6785,
      "Ġmelod": 6786,
      "Ġquarrel": 6787,
      "ĠAndhakas": 6788,
      "Ġunwilling": 6789,
      "ĠAccom": 6790,
      "ĠHirany": 6791,
      "Ġyellow": 6792,
      "ĠReflecting": 6793,
      "Ġissuing": 6794,
      "Ġavarice": 6795,
      "Ġvaluable": 6796,
      "ĠGandhamadana": 6797,
      "such": 6798,
      "sacrifices": 6799,
      "through": 6800,
      "Ġtank": 6801,
      "Ġtired": 6802,
      "arnt": 6803,
      "Ġpained": 6804,
      "itana": 6805,
      "imp": 6806,
      "ĠBl": 6807,
      "ĠVayu": 6808,
      "Ġnotice": 6809,
      "rust": 6810,
      "ourn": 6811,
      "Ġthereby": 6812,
      "Ġrapt": 6813,
      "Ġintention": 6814,
      "Ġresisting": 6815,
      "aunt": 6816,
      "Ġfac": 6817,
      "Ġcreating": 6818,
      "ĠCasting": 6819,
      "Ġheroism": 6820,
      "ĠAss": 6821,
      "Ġillumin": 6822,
      "Ġhostilities": 6823,
      "inkling": 6824,
      "anquished": 6825,
      "Ġterrified": 6826,
      "Ġtransp": 6827,
      "Ġfathers": 6828,
      "Ġsorrows": 6829,
      "Ġeloqu": 6830,
      "Ġ34": 6831,
      "Ġvisited": 6832,
      "Ġburden": 6833,
      "Ġdominion": 6834,
      "Ġcharged": 6835,
      "Ġderive": 6836,
      "Ġplanet": 6837,
      "Ġdischarged": 6838,
      "Ġdomesticity": 6839,
      "Ġmotionless": 6840,
      "ĠKusa": 6841,
      "Ġdictates": 6842,
      "ĠEnglish": 6843,
      "ĠYamuna": 6844,
      "Ġchamber": 6845,
      "course": 6846,
      "oid": 6847,
      "rank": 6848,
      "side": 6849,
      "Ġcasts": 6850,
      "asya": 6851,
      "Ġinqu": 6852,
      "Ġwid": 6853,
      "set": 6854,
      "Ġgained": 6855,
      "ĠAy": 6856,
      "ainer": 6857,
      "apara": 6858,
      "ĠMay": 6859,
      "ilight": 6860,
      "Ġthence": 6861,
      "Ġslumber": 6862,
      "Ġlearnt": 6863,
      "Ġabsol": 6864,
      "Ġago": 6865,
      "ĠInst": 6866,
      "Ġneigh": 6867,
      "angers": 6868,
      "Ġreflection": 6869,
      "Ġheavenly": 6870,
      "ĠSatya": 6871,
      "Ġchiefs": 6872,
      "Ġimpossible": 6873,
      "Ġsuperhuman": 6874,
      "Ġoppressed": 6875,
      "Ġsummits": 6876,
      "Ġbeside": 6877,
      "Ġprevent": 6878,
      "Ġidentity": 6879,
      "mediate": 6880,
      "Ġmisunder": 6881,
      "Ġlaughing": 6882,
      "ĠYadavas": 6883,
      "faced": 6884,
      "Ġrebuk": 6885,
      "Ġhabit": 6886,
      "Ġrendering": 6887,
      "Ġmingled": 6888,
      "Ġlamps": 6889,
      "Ġprostrate": 6890,
      "Ġinsects": 6891,
      "ĠDurmukha": 6892,
      "ĠYOGA": 6893,
      "Ġteeming": 6894,
      "ĠInfinite": 6895,
      "ĠPinaka": 6896,
      "Ġdignity": 6897,
      "Ġbosom": 6898,
      "ĠVichitrav": 6899,
      "ĠKailasa": 6900,
      "cause": 6901,
      "Ġsore": 6902,
      "Ġbened": 6903,
      "Ġfie": 6904,
      "Ġtied": 6905,
      "Ġcres": 6906,
      "Ġpairs": 6907,
      "Ġinflu": 6908,
      "leph": 6909,
      "Ġlist": 6910,
      "Ġreleas": 6911,
      "ĠThinking": 6912,
      "ĠAc": 6913,
      "ima": 6914,
      "amana": 6915,
      "isht": 6916,
      "ulous": 6917,
      "Ġarising": 6918,
      "nacular": 6919,
      "ĠBhojas": 6920,
      "ositions": 6921,
      "Ġregulated": 6922,
      "pted": 6923,
      "ighth": 6924,
      "Ġrock": 6925,
      "adeth": 6926,
      "ĠBrahmanicide": 6927,
      "Ġforming": 6928,
      "Ġbodily": 6929,
      "Ġincidents": 6930,
      "Ġneut": 6931,
      "angs": 6932,
      "Ġplough": 6933,
      "ĠChek": 6934,
      "Ġremaining": 6935,
      "Ġscru": 6936,
      "Ġdepth": 6937,
      "ĠDevas": 6938,
      "Ġimplying": 6939,
      "ĠGandhi": 6940,
      "Ġevident": 6941,
      "?'\"": 6942,
      "acity": 6943,
      "ĠAlamvusha": 6944,
      "Ġseventh": 6945,
      "Ġawakened": 6946,
      "Ġinterv": 6947,
      "Ġprofuse": 6948,
      "Ġvoices": 6949,
      "ĠDanava": 6950,
      "Ġrealms": 6951,
      "ĠPuranas": 6952,
      "Ġwretches": 6953,
      "ĠVaisravana": 6954,
      "Ġbreathing": 6955,
      "Ġproclaim": 6956,
      "Ġuntil": 6957,
      "Ġtranslators": 6958,
      "Ġvessels": 6959,
      "Ġfuneral": 6960,
      "Ġserpents": 6961,
      "Ġumbrellas": 6962,
      "Ġquietly": 6963,
      "ĠDwapara": 6964,
      "ĠDwaraka": 6965,
      "Ġgardens": 6966,
      "ĠPeople": 6967,
      "Ġconciliation": 6968,
      "Ġendeavoured": 6969,
      "Ġcopper": 6970,
      "ĠRepairing": 6971,
      "Ġfingers": 6972,
      "ĠAddressing": 6973,
      "idiary": 6974,
      "hi": 6975,
      "vity": 6976,
      "Ġthro": 6977,
      "Ġsch": 6978,
      "Ġcrying": 6979,
      "Ġdin": 6980,
      "Ġgen": 6981,
      "Ġrent": 6982,
      "alry": 6983,
      "owered": 6984,
      "ĠIksh": 6985,
      "ĠSutas": 6986,
      "ishment": 6987,
      "Ġstolen": 6988,
      "Ġvic": 6989,
      "Ġconso": 6990,
      "respect": 6991,
      "ĠMith": 6992,
      "ĠRahu": 6993,
      "Ġrains": 6994,
      "Ġages": 6995,
      "ĠNand": 6996,
      "ording": 6997,
      "Ġtwain": 6998,
      "Ġoffice": 6999,
      "Ġimmen": 7000,
      "Ġcontinuous": 7001,
      "ampore": 7002,
      "Ġpleasant": 7003,
      "anchi": 7004,
      "Ġwishing": 7005,
      "ibility": 7006,
      "ĠVidar": 7007,
      "Ġdrivers": 7008,
      "Ġtemples": 7009,
      "Ġtribe": 7010,
      "Ġsubsidiary": 7011,
      "Ġrevol": 7012,
      "ramas": 7013,
      "ĠKasi": 7014,
      "Ġforbidden": 7015,
      "erers": 7016,
      "Ġforsake": 7017,
      "Ġstopped": 7018,
      "asmuch": 7019,
      "Ġexactly": 7020,
      "ĠIntellig": 7021,
      "Ġceaselessly": 7022,
      "Ġleathern": 7023,
      "ĠChastisement": 7024,
      "Ġtremendous": 7025,
      "ĠChekitana": 7026,
      "Ġimmense": 7027,
      "King": 7028,
      "Krishna": 7029,
      "Mah": 7030,
      "Vri": 7031,
      "mp": 7032,
      "Ġwails": 7033,
      "Ġcave": 7034,
      "Ġmien": 7035,
      "Ġpressed": 7036,
      "Ġlance": 7037,
      "ĠImm": 7038,
      "ĠObs": 7039,
      "Ġheaps": 7040,
      "ĠSreed": 7041,
      "ĠSince": 7042,
      "ĠVish": 7043,
      "Ġwept": 7044,
      "ikeya": 7045,
      "athered": 7046,
      "Ġspiked": 7047,
      "Ġagent": 7048,
      "Ġoffices": 7049,
      "ĠLight": 7050,
      "ĠArgh": 7051,
      "Ġattire": 7052,
      "Ġoverp": 7053,
      "ushas": 7054,
      "arich": 7055,
      "auspicious": 7056,
      "Ġimped": 7057,
      "Ġtransform": 7058,
      "Ġcrows": 7059,
      "Ġdescendants": 7060,
      "Ġashram": 7061,
      "ĠDasaratha": 7062,
      "Ġabundance": 7063,
      "ĠSlaying": 7064,
      "Ġincomparable": 7065,
      "Ġstruggling": 7066,
      "Ġefficacy": 7067,
      "Ġintoxicated": 7068,
      "Ġvigorously": 7069,
      "hotra": 7070,
      "ĠSerampore": 7071,
      "ĠSreedhara": 7072,
      "Hear": 7073,
      "Me": 7074,
      "ken": 7075,
      "leness": 7076,
      "uals": 7077,
      "Ġsaving": 7078,
      "Ġhate": 7079,
      "anced": 7080,
      "Ġpanic": 7081,
      "Ġeasy": 7082,
      "rog": 7083,
      "Ġreverse": 7084,
      "Ġuter": 7085,
      "Ġheight": 7086,
      "Ġforget": 7087,
      "Ġdefect": 7088,
      "ulc": 7089,
      "api": 7090,
      "ĠRanchi": 7091,
      "Ġrare": 7092,
      "Ġslaves": 7093,
      "Ġaggreg": 7094,
      "Ġagricult": 7095,
      "plicity": 7096,
      "ĠLomasa": 7097,
      "ĠTHE": 7098,
      "Ġsincerity": 7099,
      "mbol": 7100,
      "Ġloos": 7101,
      "Ġincarn": 7102,
      "Ġsubsequ": 7103,
      "urally": 7104,
      "Ġdelicious": 7105,
      "Ġinvol": 7106,
      "ĠYoj": 7107,
      "Ġscriptural": 7108,
      "Ġfriendly": 7109,
      "ibly": 7110,
      "Ġtrad": 7111,
      "ĠDevala": 7112,
      "being": 7113,
      "Ġmeasures": 7114,
      "ĠViro": 7115,
      "Ġdeceased": 7116,
      "Ġgarland": 7117,
      "tinguish": 7118,
      "Ġconceived": 7119,
      "Ġdrop": 7120,
      "Ġcalling": 7121,
      "Ġaiming": 7122,
      "Ġmonkey": 7123,
      "ĠDhartarashtra": 7124,
      "Ġsatisfied": 7125,
      "ĠWestern": 7126,
      "Ġpersec": 7127,
      "Ġcosmic": 7128,
      "ĠAmerica": 7129,
      "Ġgladdening": 7130,
      "Ġhawk": 7131,
      "Ġcavalry": 7132,
      "Ġmagnanimous": 7133,
      "Meanwhile": 7134,
      "bably": 7135,
      "prastha": 7136,
      "Ġrows": 7137,
      "Ġthrew": 7138,
      "Ġava": 7139,
      "Ġom": 7140,
      "Ġbreed": 7141,
      "Ġfet": 7142,
      "Ġfix": 7143,
      "ller": 7144,
      "Ġpress": 7145,
      "iter": 7146,
      "Ġbeast": 7147,
      "Ġeighth": 7148,
      "seen": 7149,
      "Ġshade": 7150,
      "akh": 7151,
      "ĠKanka": 7152,
      "Ġstated": 7153,
      "Ġvib": 7154,
      "Ġsucc": 7155,
      "Ġmete": 7156,
      "pets": 7157,
      "Ġmyri": 7158,
      "Ġcarless": 7159,
      "Ġintro": 7160,
      "crimin": 7161,
      "Ġabounded": 7162,
      "Ġpermitted": 7163,
      "Ġresort": 7164,
      "ĠTreta": 7165,
      "Ġwatch": 7166,
      "ĠBeings": 7167,
      "Ġoutward": 7168,
      "Ġswan": 7169,
      "ĠVasu": 7170,
      "They": 7171,
      "petals": 7172,
      "Ġsuperiority": 7173,
      "Ġexclaimed": 7174,
      "Ġsuccessful": 7175,
      "ĠSometimes": 7176,
      "Ġsuppl": 7177,
      "ĠParikshit": 7178,
      "Ġshows": 7179,
      "Ġdiscipl": 7180,
      "Ġbenefiting": 7181,
      "Ġindicate": 7182,
      "Ġincluded": 7183,
      "ĠDevaki": 7184,
      "existent": 7185,
      "Ġinsulted": 7186,
      "Ġdescended": 7187,
      "Ġfatal": 7188,
      "Ġcolours": 7189,
      "ĠVikartana": 7190,
      "Ġhomage": 7191,
      "ĠMagadha": 7192,
      "ĠAshtavakra": 7193,
      "Ġpreparations": 7194,
      "ĠDaruka": 7195,
      "Ġpearls": 7196,
      "ĠMithila": 7197,
      "Vid": 7198,
      "axes": 7199,
      "bes": 7200,
      "fy": 7201,
      "fety": 7202,
      "hear": 7203,
      "Ġbands": 7204,
      "Ġfever": 7205,
      "llust": 7206,
      "Ġpledge": 7207,
      "owards": 7208,
      "ĠSagara": 7209,
      "Ġsafety": 7210,
      "ĠParasara": 7211,
      "iksha": 7212,
      "Ġwear": 7213,
      "Ġunret": 7214,
      "oking": 7215,
      "unaka": 7216,
      "ĠWhite": 7217,
      "Ġtwilight": 7218,
      "Ġcogn": 7219,
      "ictory": 7220,
      "ĠFreed": 7221,
      "Ġinculc": 7222,
      "Ġblank": 7223,
      "bhas": 7224,
      "Ġyourselves": 7225,
      "Ġterrific": 7226,
      "ĠPram": 7227,
      "Where": 7228,
      "Ġseekest": 7229,
      "ĠShakra": 7230,
      "ĠAmv": 7231,
      "Ġwielding": 7232,
      "Ġearns": 7233,
      "Ġridic": 7234,
      "Ġconches": 7235,
      "Ġdiet": 7236,
      "Ġgrowing": 7237,
      "Ġwrongly": 7238,
      "Ġcensurable": 7239,
      "Ġconqueror": 7240,
      "ĠRohini": 7241,
      "Brahman": 7242,
      "Ġtroub": 7243,
      "Ġtrouble": 7244,
      "Ġstainless": 7245,
      "Ġrishis": 7246,
      "ourable": 7247,
      "Ġfacult": 7248,
      "Ġaggregate": 7249,
      "35": 7250,
      "Sh": 7251,
      "four": 7252,
      "lasting": 7253,
      "Ġwine": 7254,
      "itor": 7255,
      "racted": 7256,
      "Ġrecept": 7257,
      "ĠAh": 7258,
      "ĠOver": 7259,
      "idya": 7260,
      "among": 7261,
      "ĠKra": 7262,
      "ĠKirit": 7263,
      "Ġkingly": 7264,
      "Ġvice": 7265,
      "Ġworm": 7266,
      "Ġprove": 7267,
      "Ġyoj": 7268,
      "udge": 7269,
      "Ġmanliness": 7270,
      "ardon": 7271,
      "Ġunless": 7272,
      "Ġunsu": 7273,
      "ĠGaya": 7274,
      "Ġregained": 7275,
      "ĠLe": 7276,
      "Ġeverybody": 7277,
      "Ġimage": 7278,
      "Ġcontrib": 7279,
      "Ġdesireth": 7280,
      "Ġflowing": 7281,
      "Ġillum": 7282,
      "Ġterrit": 7283,
      "Ġterms": 7284,
      "Ġrespectable": 7285,
      "Ġretire": 7286,
      "Ġreproach": 7287,
      "ĠSatanika": 7288,
      "atsena": 7289,
      "Ġglance": 7290,
      "Ġfields": 7291,
      "Ġdiscours": 7292,
      "Ġnaturally": 7293,
      "Ġchastisers": 7294,
      "Ġwaist": 7295,
      "Ġspeakers": 7296,
      "Ġlineage": 7297,
      "Ġbathe": 7298,
      "Ġsovereign": 7299,
      "Ġsymbol": 7300,
      "Ġimmovable": 7301,
      "Ġundes": 7302,
      "Ġliberality": 7303,
      "ĠBrahmacharin": 7304,
      "Ġcrops": 7305,
      "ĠVahuka": 7306,
      "Ġdiscovered": 7307,
      "Ġchoose": 7308,
      "Ġcopious": 7309,
      "ĠMagadhas": 7310,
      "Ġsmiters": 7311,
      "karu": 7312,
      "Ġcharacteristics": 7313,
      "aratkaru": 7314,
      "ĠSthanu": 7315,
      "Ġdownpour": 7316,
      "Janamejaya": 7317,
      "ĠMahabh": 7318,
      "Ġmisunderst": 7319,
      "ĠVichitravirya": 7320,
      "Vidura": 7321,
      "lands": 7322,
      "skin": 7323,
      "tem": 7324,
      "vanquished": 7325,
      "Ġbaffling": 7326,
      "ont": 7327,
      "Ġinward": 7328,
      "Ġinauspicious": 7329,
      "Ġtoward": 7330,
      "Ġreject": 7331,
      "Ġrenders": 7332,
      "ĠSush": 7333,
      "ids": 7334,
      "ĠKund": 7335,
      "ics": 7336,
      "Ġstop": 7337,
      "Ġvile": 7338,
      "ĠWait": 7339,
      "lage": 7340,
      "Ġrival": 7341,
      "Ġroads": 7342,
      "Ġclosed": 7343,
      "Ġfloral": 7344,
      "Ġruling": 7345,
      "utely": 7346,
      "Ġasking": 7347,
      "astern": 7348,
      "ĠPrith": 7349,
      "Ġinjuring": 7350,
      "Ġmiles": 7351,
      "Ġdespair": 7352,
      "ĠNothing": 7353,
      "Ġstupefaction": 7354,
      "Ġincreased": 7355,
      "Ġbuilt": 7356,
      "Ġpursuing": 7357,
      "Ġobstruct": 7358,
      "Ġmarched": 7359,
      "Ġextremely": 7360,
      "Ġluminous": 7361,
      "Ġdevotees": 7362,
      "Ġgloom": 7363,
      "Ġpopulation": 7364,
      "Ġscene": 7365,
      "Ġdisunion": 7366,
      "Ġpetals": 7367,
      "ĠArghya": 7368,
      "Yes": 7369,
      "brows": 7370,
      "eem": 7371,
      "look": 7372,
      "pore": 7373,
      "vi": 7374,
      "Ġsqu": 7375,
      "arata": 7376,
      "aswat": 7377,
      "Ġinflicted": 7378,
      "Ġinasmuch": 7379,
      "Thy": 7380,
      "avah": 7381,
      "imate": 7382,
      "cture": 7383,
      "oming": 7384,
      "ĠBal": 7385,
      "ivorous": 7386,
      "Ġdemon": 7387,
      "ĠThee": 7388,
      "ifully": 7389,
      "ikh": 7390,
      "sht": 7391,
      "antra": 7392,
      "Ġtherefrom": 7393,
      "Ġsoj": 7394,
      "Ġperished": 7395,
      "Ġreserved": 7396,
      "Ġfarew": 7397,
      "Ġrocks": 7398,
      "upala": 7399,
      "Ġindu": 7400,
      "Ġfeels": 7401,
      "Ġgramm": 7402,
      "atiated": 7403,
      "bhi": 7404,
      "Ġdeliv": 7405,
      "Ġremove": 7406,
      "Ġcausal": 7407,
      "Ġadvant": 7408,
      "Ġproduces": 7409,
      "Ġassemblage": 7410,
      "Ġ37": 7411,
      "Ġcareering": 7412,
      "Ġvoc": 7413,
      "Ġurine": 7414,
      "Ġgarments": 7415,
      "Ġrecovered": 7416,
      "Ġmaidens": 7417,
      "ĠVijaya": 7418,
      "Ġdetails": 7419,
      "Ġconclusions": 7420,
      "Ġlowest": 7421,
      "Ġperpetrated": 7422,
      "ĠPhalguni": 7423,
      "Ġdreams": 7424,
      "histhira": 7425,
      "skins": 7426,
      "ĠKusika": 7427,
      "Ġopposites": 7428,
      "Ġjumping": 7429,
      "Ġassistance": 7430,
      "Ġconviction": 7431,
      "Ġstarted": 7432,
      "control": 7433,
      "Ġflashes": 7434,
      "Ġpicture": 7435,
      "Ġinterpret": 7436,
      "Ġhoriz": 7437,
      "ĠApproaching": 7438,
      "Ġproportions": 7439,
      "ĠSaradwat": 7440,
      "Ġloosened": 7441,
      "ĠVirochana": 7442,
      "Ġfarewell": 7443,
      "?âĢĻ": 7444,
      "ED": 7445,
      "IN": 7446,
      "oves": 7447,
      "pointed": 7448,
      "rast": 7449,
      "sight": 7450,
      "van": 7451,
      "âĦ": 7452,
      "Ġthin": 7453,
      "Ġawa": 7454,
      "Ġaxes": 7455,
      "Ġought": 7456,
      "Ġego": 7457,
      "Ġwithst": 7458,
      "Ġgem": 7459,
      "avata": 7460,
      "Ġshares": 7461,
      "ĠKan": 7462,
      "ĠKinn": 7463,
      "ife": 7464,
      "ĠHan": 7465,
      "Ġcharge": 7466,
      "Ġeng": 7467,
      "umara": 7468,
      "Ġdesign": 7469,
      "achike": 7470,
      "ieth": 7471,
      "rounded": 7472,
      "Ġactive": 7473,
      "Ġactual": 7474,
      "eeds": 7475,
      "Ġboys": 7476,
      "Ġdownwards": 7477,
      "Ġflows": 7478,
      "Ġregardeth": 7479,
      "Ġswami": 7480,
      "Ġbeauteous": 7481,
      "arsana": 7482,
      "Ġeverlasting": 7483,
      "Ġdistant": 7484,
      "Ġyours": 7485,
      "Ġresembles": 7486,
      "Ġexplan": 7487,
      "Ġ31": 7488,
      "Ġlimb": 7489,
      "Ġsilently": 7490,
      "Ġopposed": 7491,
      "Ġmastery": 7492,
      "Ġintermediate": 7493,
      "Ġmeasured": 7494,
      "Ġindulg": 7495,
      "Ġhonouring": 7496,
      "ĠBengali": 7497,
      "Ġwrongs": 7498,
      "ĠBhagiratha": 7499,
      "Ġdeserveth": 7500,
      "Ġseparately": 7501,
      "Ġedition": 7502,
      "ĠNishadhas": 7503,
      "Ġperceive": 7504,
      "Ġamidst": 7505,
      "ĠApana": 7506,
      "Ġexpression": 7507,
      "Ġprogeny": 7508,
      "Ġfeeding": 7509,
      "Ġsubstance": 7510,
      "Ġpeacocks": 7511,
      "Ġmortals": 7512,
      "ĠKaikeyas": 7513,
      "ĠAdhyatma": 7514,
      "Ġmyriads": 7515,
      "âĦ¢": 7516,
      "Know": 7517,
      "Ut": 7518,
      "fire": 7519,
      "ob": 7520,
      "teth": 7521,
      "zen": 7522,
      "Ġaud": 7523,
      "inence": 7524,
      "inations": 7525,
      "Ġsize": 7526,
      "Ġtanks": 7527,
      "Ġdual": 7528,
      "Ġdrank": 7529,
      "Ġpad": 7530,
      "Ġgently": 7531,
      "Ġgathered": 7532,
      "Ġlands": 7533,
      "Ġreve": 7534,
      "ĠAth": 7535,
      "ĠSis": 7536,
      "ĠSair": 7537,
      "Ġdeception": 7538,
      "Ġate": 7539,
      "Ġenm": 7540,
      "Ġherds": 7541,
      "Ġthereon": 7542,
      "Ġthereto": 7543,
      "cking": 7544,
      "Ġdesist": 7545,
      "Ġdescript": 7546,
      "Ġungu": 7547,
      "Ġregul": 7548,
      "atah": 7549,
      "wny": 7550,
      "ĠFie": 7551,
      "Ġloved": 7552,
      "Ġafternoon": 7553,
      "Ġincident": 7554,
      "Ġdevoid": 7555,
      "Ġgrain": 7556,
      "Ġrespectfully": 7557,
      "icked": 7558,
      "icking": 7559,
      "Ġdelicate": 7560,
      "angas": 7561,
      "ĠChitra": 7562,
      "Ġmoves": 7563,
      "ĠMahendra": 7564,
      "Ġslept": 7565,
      "Ġtech": 7566,
      "Ġevidently": 7567,
      "Ġdiscl": 7568,
      "Ġpasses": 7569,
      "ĠAnir": 7570,
      "ancer": 7571,
      "armishtha": 7572,
      "Ġconquering": 7573,
      "Ġburst": 7574,
      "Ġrenounce": 7575,
      "Ġescaped": 7576,
      "ĠBhagira": 7577,
      "Ġadorations": 7578,
      "Ġembracing": 7579,
      "Ġexterminate": 7580,
      "Ġteaching": 7581,
      "Ġlikest": 7582,
      "Ġexample": 7583,
      "hamanyu": 7584,
      "Ġmendicancy": 7585,
      "Ġscimitar": 7586,
      "ĠQu": 7587,
      "ĠKamvojas": 7588,
      "Ġdrenched": 7589,
      "Ġbenedictions": 7590,
      "Ġcrescent": 7591,
      "Wait": 7592,
      "hip": 7593,
      "hinis": 7594,
      "iest": 7595,
      "oh": 7596,
      "rans": 7597,
      "Ġaqu": 7598,
      "Ġswar": 7599,
      "Ġmira": 7600,
      "Ġmoney": 7601,
      "Ġdaz": 7602,
      "itled": 7603,
      "Ġecho": 7604,
      "aly": 7605,
      "ioned": 7606,
      "verted": 7607,
      "ĠSurely": 7608,
      "ĠKe": 7609,
      "rue": 7610,
      "apes": 7611,
      "Ġboar": 7612,
      "Ġquiver": 7613,
      "Ġbowstring": 7614,
      "ĠUpan": 7615,
      "Ġdeliver": 7616,
      "ringa": 7617,
      "Ġrepro": 7618,
      "Ġobserves": 7619,
      "Ġrecom": 7620,
      "Ġseeketh": 7621,
      "Ġbreasts": 7622,
      "Ġvictim": 7623,
      "Ġconfounded": 7624,
      "Ġbravery": 7625,
      "Ġfreely": 7626,
      "Ġphenom": 7627,
      "Ġabandonment": 7628,
      "ĠProfit": 7629,
      "indhri": 7630,
      "Ġtemple": 7631,
      "Ġfinds": 7632,
      "anned": 7633,
      "Ġinsight": 7634,
      "Ġliberal": 7635,
      "Ġlaws": 7636,
      "Ġstretch": 7637,
      "Ġbuild": 7638,
      "Ġextended": 7639,
      "Ġclearly": 7640,
      "Ġrecollecting": 7641,
      "Ġposture": 7642,
      "Ġshores": 7643,
      "ĠYudhamanyu": 7644,
      "Ġscimitars": 7645,
      "Ġinfantry": 7646,
      "ĠYajnasena": 7647,
      "ĠPravritti": 7648,
      "Ġdiminution": 7649,
      "ĠIntelligence": 7650,
      "ĠYojanas": 7651,
      "hearted": 7652,
      "Ġunguents": 7653,
      "Illust": 7654,
      "aud": 7655,
      "fare": 7656,
      "jp": 7657,
      "jyot": 7658,
      "Ġsaved": 7659,
      "atam": 7660,
      "Ġtail": 7661,
      "Ġmire": 7662,
      "Ġmana": 7663,
      "Ġdare": 7664,
      "iture": 7665,
      "Ġetern": 7666,
      "ĠAira": 7667,
      "ĠOm": 7668,
      "Ġshad": 7669,
      "Ġshorn": 7670,
      "Ġstalks": 7671,
      "ĠPuro": 7672,
      "uli": 7673,
      "Ġarts": 7674,
      "Ġarrog": 7675,
      "Ġsevered": 7676,
      "ĠVaka": 7677,
      "Ġnote": 7678,
      "Ġproved": 7679,
      "nable": 7680,
      "ĠMandh": 7681,
      "Ġchoked": 7682,
      "Ġchanged": 7683,
      "Ġdoer": 7684,
      "ĠGh": 7685,
      "wara": 7686,
      "forth": 7687,
      "riti": 7688,
      "Ġspend": 7689,
      "Ġattitude": 7690,
      "Ġwarm": 7691,
      "Ġwarfare": 7692,
      "ĠJaratkaru": 7693,
      "Ġlonging": 7694,
      "Ġplat": 7695,
      "Ġconstruction": 7696,
      "ĠAditi": 7697,
      "Ġprofession": 7698,
      "Ġburthen": 7699,
      "Ġtemper": 7700,
      "Ġliable": 7701,
      "Ġstronger": 7702,
      "regarding": 7703,
      "Ġnews": 7704,
      "Ġcloths": 7705,
      "Ġdeceived": 7706,
      "ĠNila": 7707,
      "ĠAngas": 7708,
      "ĠSarva": 7709,
      "Ġlustre": 7710,
      "Ġadoring": 7711,
      "Ġstretching": 7712,
      "Ġcontaining": 7713,
      "ĠMrity": 7714,
      "Ġchalleng": 7715,
      "Ġsamsaptakas": 7716,
      "Ġomnip": 7717,
      "Ġrenowned": 7718,
      "Ġdoctrine": 7719,
      "Ġcommunicated": 7720,
      "Ġlanguage": 7721,
      "Ġdedicated": 7722,
      "ĠRukmin": 7723,
      "Ġuterine": 7724,
      "achiketa": 7725,
      "ĠSairindhri": 7726,
      "ĠAniruddha": 7727,
      "Illustration": 7728,
      "jpg": 7729,
      "!âĢĻ": 7730,
      "16": 7731,
      "St": 7732,
      "bann": 7733,
      "called": 7734,
      "fast": 7735,
      "rors": 7736,
      "spe": 7737,
      "Ġod": 7738,
      "rel": 7739,
      "reth": 7740,
      "Ġsang": 7741,
      "Ġwalls": 7742,
      "Ġhat": 7743,
      "Ġhers": 7744,
      "Ġcrest": 7745,
      "Ġpity": 7746,
      "Ġpardon": 7747,
      "itory": 7748,
      "rava": 7749,
      "Ġgates": 7750,
      "Ġnavel": 7751,
      "Ġksh": 7752,
      "ĠSarmishtha": 7753,
      "Ġshaking": 7754,
      "ĠKir": 7755,
      "ĠKash": 7756,
      "ĠDost": 7757,
      "Ġdeg": 7758,
      "ulog": 7759,
      "Ġprocess": 7760,
      "ĠWill": 7761,
      "elang": 7762,
      "Ġlikewise": 7763,
      "Ġdeserved": 7764,
      "Ġunvanquished": 7765,
      "ĠEast": 7766,
      "Ġtwinkling": 7767,
      "Ġroared": 7768,
      "ĠTelang": 7769,
      "mbals": 7770,
      "Ġspears": 7771,
      "Ġregardest": 7772,
      "Ġbludge": 7773,
      "Ġswear": 7774,
      "Ġfearless": 7775,
      "Ġreft": 7776,
      "ĠWithin": 7777,
      "Ġrecites": 7778,
      "Ġinstant": 7779,
      "Ġparties": 7780,
      "ĠPrabh": 7781,
      "Ġcastes": 7782,
      "Ġcurds": 7783,
      "Ġtrident": 7784,
      "Ġgranting": 7785,
      "Ġdespatch": 7786,
      "Ġjoining": 7787,
      "Ġstayeth": 7788,
      "Ġmetals": 7789,
      "Ġprocreat": 7790,
      "Ġconcentration": 7791,
      "Ġreaching": 7792,
      "Ġexperienced": 7793,
      "Ġguarded": 7794,
      "intellig": 7795,
      "Ġsituation": 7796,
      "Ġfuriously": 7797,
      "ĠYudhisthira": 7798,
      "ĠHimalayas": 7799,
      "Ġrelationship": 7800,
      "ĠTruly": 7801,
      "Ġritual": 7802,
      "ĠReligion": 7803,
      "ĠRemember": 7804,
      "ishtoma": 7805,
      "Ġhorizon": 7806,
      "ĠKinnaras": 7807,
      "ĠMrityu": 7808,
      "bannered": 7809,
      "gum": 7810,
      "nces": 7811,
      "yu": 7812,
      "Ġthrong": 7813,
      "reya": 7814,
      "Ġtast": 7815,
      "Ġbeareth": 7816,
      "cepts": 7817,
      "riving": 7818,
      "ential": 7819,
      "ainable": 7820,
      "ĠKine": 7821,
      "ĠPaka": 7822,
      "using": 7823,
      "alling": 7824,
      "ĠHara": 7825,
      "shaped": 7826,
      "umer": 7827,
      "osen": 7828,
      "Ġcarn": 7829,
      "Ġungr": 7830,
      "Ġability": 7831,
      "Ġroam": 7832,
      "ĠFate": 7833,
      "Ġbegins": 7834,
      "Ġusage": 7835,
      "Ġoutside": 7836,
      "Ġbestowing": 7837,
      "Ġsteedless": 7838,
      "Ġpeak": 7839,
      "Ġcompound": 7840,
      "Ġrefuse": 7841,
      "Ġsheep": 7842,
      "Ġhumbly": 7843,
      "Ġrecl": 7844,
      "Ġglorious": 7845,
      "Ġwoes": 7846,
      "Ġconstructed": 7847,
      "Ġvernacular": 7848,
      "Ġwooden": 7849,
      "ĠSatyavan": 7850,
      "Ġpresently": 7851,
      "ffal": 7852,
      "Ġdriving": 7853,
      "Ġcows": 7854,
      "Ġintercourse": 7855,
      "Ġcorres": 7856,
      "Ġcontrolled": 7857,
      "Ġfailing": 7858,
      "Ġsyll": 7859,
      "Ġprovoked": 7860,
      "Ġtreatises": 7861,
      "Ġviands": 7862,
      "edding": 7863,
      "amvara": 7864,
      "Ġdischar": 7865,
      "Ġbuffal": 7866,
      "Ġtraining": 7867,
      "ĠSankhyas": 7868,
      "Ġliked": 7869,
      "Ġconsiderations": 7870,
      "Ġslightly": 7871,
      "Ġmulti": 7872,
      "Ġmendicant": 7873,
      "Ġadversary": 7874,
      "Ġjumped": 7875,
      "Ġthirteenth": 7876,
      "Ġattentive": 7877,
      "Ġcymbals": 7878,
      "ĠMaghavat": 7879,
      "Ġvariety": 7880,
      "Excellent": 7881,
      "ĠPenances": 7882,
      "ĠAnuvinda": 7883,
      "ĠBhagirathi": 7884,
      "AR": 7885,
      "Astika": 7886,
      "Drona": 7887,
      "acc": 7888,
      "do": 7889,
      "ends": 7890,
      "jata": 7891,
      "pered": 7892,
      "Ġsingly": 7893,
      "Ġhidden": 7894,
      "Ġbased": 7895,
      "Ġfresh": 7896,
      "arous": 7897,
      "Ġmiss": 7898,
      "itah": 7899,
      "cending": 7900,
      "room": 7901,
      "Ġloses": 7902,
      "Ġstar": 7903,
      "tering": 7904,
      "Ġfoet": 7905,
      "ĠWell": 7906,
      "Ġdisapp": 7907,
      "Ġdiscrimin": 7908,
      "Ġdesert": 7909,
      "Ġdoors": 7910,
      "Ġdogs": 7911,
      "aketh": 7912,
      "unas": 7913,
      "Ġendowed": 7914,
      "ĠArt": 7915,
      "olence": 7916,
      "Ġentitled": 7917,
      "Ġpresiding": 7918,
      "bhoja": 7919,
      "uchi": 7920,
      "Ġseemeth": 7921,
      "ĠPrag": 7922,
      "Ġjoys": 7923,
      "Ġencounters": 7924,
      "Ġsuccessive": 7925,
      "Ġexpound": 7926,
      "ĠAnother": 7927,
      "Ġsuffers": 7928,
      "Ġlimits": 7929,
      "ĠSamans": 7930,
      "ratified": 7931,
      "Ġsimplicity": 7932,
      "Ġmedit": 7933,
      "Ġtrick": 7934,
      "ĠDevavrata": 7935,
      "Ġgeneration": 7936,
      "ĠReco": 7937,
      "Ġnarrate": 7938,
      "Ġprovided": 7939,
      "Ġpolished": 7940,
      "Ġnecessity": 7941,
      "Ġcrowds": 7942,
      "adaswa": 7943,
      "Ġembrace": 7944,
      "Ġobstructed": 7945,
      "Ġgrandfather": 7946,
      "Ġpreviously": 7947,
      "ĠNishadas": 7948,
      "ĠAbst": 7949,
      "Ġperceived": 7950,
      "Brahma": 7951,
      "Ġtransgression": 7952,
      "Ġhunter": 7953,
      "Ġmethods": 7954,
      "Without": 7955,
      "ĠKartikeya": 7956,
      "ology": 7957,
      "Ġdetermined": 7958,
      "ĠPiercing": 7959,
      "ĠKekayas": 7960,
      "Ġenlight": 7961,
      "Ġunattainable": 7962,
      "Ġprivate": 7963,
      "Ġdissociated": 7964,
      "Ġperceptions": 7965,
      "ĠHanuman": 7966,
      "Ġexplanation": 7967,
      "Kaurava": 7968,
      "Up": 7969,
      "div": 7970,
      "ked": 7971,
      "rations": 7972,
      "ters": 7973,
      "yn": 7974,
      "Ġthief": 7975,
      "inara": 7976,
      "Ġwro": 7977,
      "Ġcord": 7978,
      "aning": 7979,
      "anavata": 7980,
      "Ġdrew": 7981,
      "itas": 7982,
      "raction": 7983,
      "Ġlarg": 7984,
      "omin": 7985,
      "Ġshrie": 7986,
      "urity": 7987,
      "ĠKamy": 7988,
      "ĠDr": 7989,
      "ivities": 7990,
      "Ġstore": 7991,
      "ĠPl": 7992,
      "ĠPat": 7993,
      "Ġarch": 7994,
      "Ġsuitable": 7995,
      "ĠRuru": 7996,
      "Ġenumer": 7997,
      "etween": 7998,
      "Ġraising": 7999,
      "Ġwilling": 8000,
      "ĠTake": 8001,
      "Ġowned": 8002,
      "Ġclatter": 8003,
      "araja": 8004,
      "Ġprec": 8005,
      "Ġchildhood": 8006,
      "Ġtransf": 8007,
      "Ġencamp": 8008,
      "Ġwisheth": 8009,
      "Ġrested": 8010,
      "Ġjoyfully": 8011,
      "Ġlastly": 8012,
      "Ġspeaks": 8013,
      "Ġsinging": 8014,
      "Ġattaching": 8015,
      "Ġreverend": 8016,
      "ĠVaranavata": 8017,
      "Ġunac": 8018,
      "Ġgladdened": 8019,
      "Ġappearing": 8020,
      "ambo": 8021,
      "Ġparticularly": 8022,
      "Ġtranscended": 8023,
      "Ġdistinctions": 8024,
      "Ġheedlessness": 8025,
      "Ġtongues": 8026,
      "Ġapplication": 8027,
      "Ġdiscover": 8028,
      "Ġcontained": 8029,
      "Ġsatisfaction": 8030,
      "ĠSauv": 8031,
      "Ġmessengers": 8032,
      "Ġprostrated": 8033,
      "Ġappropriate": 8034,
      "Ġchallenged": 8035,
      "ĠSanat": 8036,
      "ĠVipula": 8037,
      "ĠSwaha": 8038,
      "Ġdemerit": 8039,
      "Ġcannibal": 8040,
      "Ġvicinity": 8041,
      "ĠKiritin": 8042,
      "ĠRukmini": 8043,
      "Ġcarnivorous": 8044,
      "Ġungrateful": 8045,
      "..": 8046,
      "VA": 8047,
      "evas": 8048,
      "how": 8049,
      "iqu": 8050,
      "raratha": 8051,
      "sl": 8052,
      "vya": 8053,
      "yak": 8054,
      "Ġthie": 8055,
      "Ġwav": 8056,
      "Ġhanging": 8057,
      "Ġbani": 8058,
      "Ġcaught": 8059,
      "Ġmaker": 8060,
      "Ġpill": 8061,
      "Ġpaying": 8062,
      "Ġlaz": 8063,
      "rily": 8064,
      "Ġnails": 8065,
      "Ġrevered": 8066,
      "Ġult": 8067,
      "adru": 8068,
      "Ġshines": 8069,
      "Ġshedding": 8070,
      "ander": 8071,
      "Ġally": 8072,
      "ĠKam": 8073,
      "ĠKarma": 8074,
      "ĠDay": 8075,
      "ĠHell": 8076,
      "ĠHoly": 8077,
      "Ġnoticed": 8078,
      "ational": 8079,
      "Ġenab": 8080,
      "athom": 8081,
      "Ġmankind": 8082,
      "laced": 8083,
      "Ġadmin": 8084,
      "Ġrap": 8085,
      "Ġraise": 8086,
      "Ġraft": 8087,
      "Ġregular": 8088,
      "Ġbehalf": 8089,
      "Ġbehoves": 8090,
      "Ġarticle": 8091,
      "Ġnobody": 8092,
      "ĠCl": 8093,
      "Ġclasp": 8094,
      "rines": 8095,
      "ĠJa": 8096,
      "Ġslays": 8097,
      "Ġcommence": 8098,
      "Ġgrieved": 8099,
      "vash": 8100,
      "ajali": 8101,
      "Ġaskest": 8102,
      "ĠKuntibhoja": 8103,
      "Ġmaketh": 8104,
      "Ġtenth": 8105,
      "Ġspeakest": 8106,
      "Ġsolitary": 8107,
      "Ġminute": 8108,
      "Ġdispute": 8109,
      "ashing": 8110,
      "acrificial": 8111,
      "iversity": 8112,
      "yasaci": 8113,
      "Ġrobbed": 8114,
      "ĠProsperity": 8115,
      "ĠThyself": 8116,
      "ĠDevoted": 8117,
      "Ġrealm": 8118,
      "Ġsteep": 8119,
      "ĠJanarddana": 8120,
      "Ġtranscend": 8121,
      "Ġrenounced": 8122,
      "ĠSavyasaci": 8123,
      "Ġsmaller": 8124,
      "Ġsources": 8125,
      "Ġsummoning": 8126,
      "ĠAvanti": 8127,
      "ĠĠĠĠĠĠĠĠ": 8128,
      "ĠAbandon": 8129,
      "Ġconstellations": 8130,
      "Ġexhaustion": 8131,
      "Ġriches": 8132,
      "ĠSamvarta": 8133,
      "Ġundergoing": 8134,
      "Ġbrahmanas": 8135,
      "Ġchecking": 8136,
      "Ġsighing": 8137,
      "Ġswallowed": 8138,
      "ĠHimalayan": 8139,
      "Ġchallenge": 8140,
      "Ġtawny": 8141,
      "ĠAkshauhini": 8142,
      "ĠDwaipayana": 8143,
      "Ġcremator": 8144,
      "Ġautumnal": 8145,
      "Ġpilgrima": 8146,
      "Ġapparently": 8147,
      "Ġtortoise": 8148,
      "poreal": 8149,
      "Ġsojourn": 8150,
      "Ġadvantage": 8151,
      "Ġpaddy": 8152,
      "Ġtechni": 8153,
      "Ġaquatic": 8154,
      "ĠAiravata": 8155,
      "ĠKamyaka": 8156,
      "Ch": 8157,
      "count": 8158,
      "iries": 8159,
      "prin": 8160,
      "rous": 8161,
      "rary": 8162,
      "Ġsatiated": 8163,
      "Ġhes": 8164,
      "Ġtale": 8165,
      "Ġcaves": 8166,
      "Ġinhere": 8167,
      "Ġeulog": 8168,
      "ĠAk": 8169,
      "chief": 8170,
      "Ġuseless": 8171,
      "ĠSway": 8172,
      "ĠSree": 8173,
      "ĠSann": 8174,
      "ĠSadas": 8175,
      "ida": 8176,
      "amau": 8177,
      "akha": 8178,
      "akarman": 8179,
      "Ġdearer": 8180,
      "ĠPas": 8181,
      "ifies": 8182,
      "Ġsugg": 8183,
      "Ġatm": 8184,
      "ĠVana": 8185,
      "ĠVira": 8186,
      "Ġworth": 8187,
      "Ġworst": 8188,
      "ĠBha": 8189,
      "Ġdescent": 8190,
      "okas": 8191,
      "Ġbrook": 8192,
      "Ġovergrown": 8193,
      "Ġblades": 8194,
      "Ġhaste": 8195,
      "Ġcompact": 8196,
      "vasa": 8197,
      "Ġremote": 8198,
      "Ġimply": 8199,
      "spread": 8200,
      "Ġrepeat": 8201,
      "Ġcombination": 8202,
      "ĠParvata": 8203,
      "Ġprofess": 8204,
      "Ġopened": 8205,
      "Ġhurling": 8206,
      "Ġcircles": 8207,
      "Ġneeded": 8208,
      "Ġeighteen": 8209,
      "Ġperiods": 8210,
      "Ġdisappears": 8211,
      "annala": 8212,
      "Ġpropri": 8213,
      "Ġmisfortun": 8214,
      "ĠExcellent": 8215,
      "Ġseverest": 8216,
      "Ġedge": 8217,
      "Ġwashing": 8218,
      "Ġsinking": 8219,
      "ĠUttamau": 8220,
      "Ġengagement": 8221,
      "Ġinterests": 8222,
      "Ġhomes": 8223,
      "Ġbrahmana": 8224,
      "ĠVivaswat": 8225,
      "ĠAkshauhinis": 8226,
      "Ġenhancing": 8227,
      "Ġjealousy": 8228,
      "Ġbreeze": 8229,
      "Ġsplit": 8230,
      "ĠAgnishtoma": 8231,
      "Ġrenouncing": 8232,
      "Ġthroat": 8233,
      "Ġagriculture": 8234,
      "ER": 8235,
      "Kuru": 8236,
      "Since": 8237,
      "dis": 8238,
      "oe": 8239,
      "sy": 8240,
      "went": 8241,
      "will": 8242,
      "Ġwore": 8243,
      "atru": 8244,
      "Ġhopes": 8245,
      "Ġbambo": 8246,
      "aram": 8247,
      "itam": 8248,
      "itudes": 8249,
      "Ġissue": 8250,
      "Ġnur": 8251,
      "change": 8252,
      "ĠDiti": 8253,
      "Ġdeterior": 8254,
      "Ġvol": 8255,
      "Ġconverse": 8256,
      "ĠVinda": 8257,
      "ĠHoma": 8258,
      "Ġpros": 8259,
      "ĠBhoja": 8260,
      "ilful": 8261,
      "Ġchee": 8262,
      "astic": 8263,
      "umph": 8264,
      "Ġspreading": 8265,
      "earable": 8266,
      "Ġoffence": 8267,
      "izing": 8268,
      "force": 8269,
      "Ġtrum": 8270,
      "ĠUd": 8271,
      "Ġsubdu": 8272,
      "Ġfearful": 8273,
      "ofs": 8274,
      "Ġunderstands": 8275,
      "Ġwondered": 8276,
      "Ġrestless": 8277,
      "Ġtelling": 8278,
      "Ġworshipful": 8279,
      "ĠParam": 8280,
      "Ġstudies": 8281,
      "Ġcalves": 8282,
      "Ġabstains": 8283,
      "Ġtriumph": 8284,
      "Ġmarrow": 8285,
      "Ġindulged": 8286,
      "ĠSurrounded": 8287,
      "ĠSudarsana": 8288,
      "Ġrespectively": 8289,
      "Ġcoveted": 8290,
      "Ġconclave": 8291,
      "Ġretreating": 8292,
      "Ġpalmy": 8293,
      "ĠExertion": 8294,
      "Ġtreasure": 8295,
      "Ġpurific": 8296,
      "Ġplayed": 8297,
      "Ġfifteen": 8298,
      "Ġgrinding": 8299,
      "Ġadvancement": 8300,
      "Ġvulture": 8301,
      "epeth": 8302,
      "protect": 8303,
      "Ġfloating": 8304,
      "Ġunbearable": 8305,
      "Ġadversity": 8306,
      "Ġconcerns": 8307,
      "Ġwhirling": 8308,
      "Ġappertaining": 8309,
      "Ġselected": 8310,
      "Ġabsorption": 8311,
      "Ġrepresser": 8312,
      "Ġthoroughly": 8313,
      "Ġliquid": 8314,
      "Ġdiscipline": 8315,
      "Ġundeserving": 8316,
      "ĠMahabharata": 8317,
      "Ġindulgence": 8318,
      "ĠPragjyot": 8319,
      ").'\"": 8320,
      "?--": 8321,
      "AL": 8322,
      "Come": 8323,
      "but": 8324,
      "hati": 8325,
      "join": 8326,
      "lies": 8327,
      "osh": 8328,
      "othing": 8329,
      "six": 8330,
      "was": 8331,
      "inst": 8332,
      "Ġinact": 8333,
      "itted": 8334,
      "Ġredu": 8335,
      "avachas": 8336,
      "ĠIm": 8337,
      "ĠIrav": 8338,
      "otted": 8339,
      "ĠDand": 8340,
      "ĠVand": 8341,
      "ĠRam": 8342,
      "hmanta": 8343,
      "elcome": 8344,
      "laid": 8345,
      "ĠGive": 8346,
      "Ġsprink": 8347,
      "Ġrises": 8348,
      "ĠNachiketa": 8349,
      "ĠTri": 8350,
      "Ġsacrificing": 8351,
      "ĠJamv": 8352,
      "Ġrelations": 8353,
      "Ġtermin": 8354,
      "Ġrefresh": 8355,
      "about": 8356,
      "Ġreputation": 8357,
      "rained": 8358,
      "Ġexposed": 8359,
      "ĠVrishap": 8360,
      "Ġdwelleth": 8361,
      "acles": 8362,
      "withstanding": 8363,
      "Ġacceptable": 8364,
      "ĠHimself": 8365,
      "Ġhurl": 8366,
      "Ġearnest": 8367,
      "Ġshook": 8368,
      "Ġmotive": 8369,
      "Ġphysicians": 8370,
      "Ġunfair": 8371,
      "Ġlaughter": 8372,
      "Ġcrowd": 8373,
      "Ġwithdrawing": 8374,
      "ĠChandramas": 8375,
      "Ġcherishes": 8376,
      "Ġbattles": 8377,
      "Ġwanderings": 8378,
      "Ġflights": 8379,
      "Ġconcerned": 8380,
      "Ġmerely": 8381,
      "ĠPierced": 8382,
      "Ġoverthrow": 8383,
      "Ġunconqu": 8384,
      "Ġfigure": 8385,
      "ĠNivritti": 8386,
      "ĠYavanas": 8387,
      "ĠPulastya": 8388,
      "Ġbewild": 8389,
      "Ġinjunctions": 8390,
      "Ġinfluenced": 8391,
      "Ġdelivered": 8392,
      "ĠSisupala": 8393,
      "Ġdescription": 8394,
      "Ġdazz": 8395,
      "Ġdeterioration": 8396,
      "10": 8397,
      "ij": 8398,
      "lim": 8399,
      "pas": 8400,
      "paste": 8401,
      "Ġsick": 8402,
      "Ġwed": 8403,
      "Ġwail": 8404,
      "ndence": 8405,
      "Ġhues": 8406,
      "enetra": 8407,
      "aneously": 8408,
      "Ġdh": 8409,
      "itious": 8410,
      "Ġbend": 8411,
      "Ġbearest": 8412,
      "Ġlac": 8413,
      "rive": 8414,
      "Ġreap": 8415,
      "ĠAst": 8416,
      "ĠOF": 8417,
      "omen": 8418,
      "ĠBuddh": 8419,
      "ĠSas": 8420,
      "ĠSata": 8421,
      "ĠSuras": 8422,
      "amanyu": 8423,
      "ots": 8424,
      "ĠDel": 8425,
      "Ġdeem": 8426,
      "Ġconform": 8427,
      "Ġsections": 8428,
      "Ġalike": 8429,
      "ersed": 8430,
      "iks": 8431,
      "ĠMo": 8432,
      "udh": 8433,
      "Ġchosen": 8434,
      "Ġensued": 8435,
      "ĠWright": 8436,
      "eli": 8437,
      "umn": 8438,
      "Ġunity": 8439,
      "ĠGu": 8440,
      "Ġsported": 8441,
      "Ġsloka": 8442,
      "ciate": 8443,
      "Ġresid": 8444,
      "unuch": 8445,
      "ĠWhence": 8446,
      "Ġaccess": 8447,
      "ĠFight": 8448,
      "Ġdestined": 8449,
      "Ġpossessor": 8450,
      "ĠJajali": 8451,
      "olic": 8452,
      "Ġprayed": 8453,
      "iparous": 8454,
      "Ġdevi": 8455,
      "oping": 8456,
      "Ġblown": 8457,
      "Ġconsulted": 8458,
      "Ġlooketh": 8459,
      "Ġscents": 8460,
      "Ġimpenetra": 8461,
      "ancholy": 8462,
      "Ġinvest": 8463,
      "Ġinstall": 8464,
      "Ġaccordance": 8465,
      "Ġevol": 8466,
      "Ġlights": 8467,
      "Ġwickedness": 8468,
      "Ġconcourse": 8469,
      "Ġexpiration": 8470,
      "ĠVrisha": 8471,
      "ĠAditya": 8472,
      "ogra": 8473,
      "ĠYugas": 8474,
      "Ġreveren": 8475,
      "Ġaffectionate": 8476,
      "Ġgenerated": 8477,
      "Ġmassive": 8478,
      "Ġinspire": 8479,
      "Ġdescending": 8480,
      "arshis": 8481,
      "Ġyields": 8482,
      "Ġprevented": 8483,
      "Ġconcluded": 8484,
      "Ġtreatise": 8485,
      "ĠSrutay": 8486,
      "ĠViswed": 8487,
      "Ġ193": 8488,
      "Ġfutile": 8489,
      "Ġespecial": 8490,
      "ĠNext": 8491,
      "Ġoccupied": 8492,
      "ĠConversant": 8493,
      "Ġgreen": 8494,
      "Ġsuspe": 8495,
      "Ġfroth": 8496,
      "Ġcultiv": 8497,
      "ĠOrdainer": 8498,
      "Ġbrilliant": 8499,
      "destroy": 8500,
      "Ġadhering": 8501,
      "Ġschol": 8502,
      "Ġoverpowered": 8503,
      "Ġomens": 8504,
      "Ġyojanas": 8505,
      "Ġenmity": 8506,
      "ĠUpanish": 8507,
      "ĠMandhatri": 8508,
      "Ġbanian": 8509,
      "Ġimpenetrable": 8510,
      ",\"": 8511,
      "44": 8512,
      "Give": 8513,
      "Ind": 8514,
      "Unto": 8515,
      "cles": 8516,
      "jun": 8517,
      "power": 8518,
      "ton": 8519,
      "tas": 8520,
      "we": 8521,
      "zing": 8522,
      "Ġ&": 8523,
      "Ġwreaths": 8524,
      "ensed": 8525,
      "Ġcri": 8526,
      "Ġmut": 8527,
      "Ġdangers": 8528,
      "Ġbees": 8529,
      "Ġeunuch": 8530,
      "Ġislands": 8531,
      "Ġretain": 8532,
      "ĠThree": 8533,
      "ĠActs": 8534,
      "owd": 8535,
      "ĠBra": 8536,
      "Ġdeaf": 8537,
      "ĠPun": 8538,
      "iform": 8539,
      "ĠHind": 8540,
      "Ġproph": 8541,
      "Ġyoke": 8542,
      "eled": 8543,
      "lace": 8544,
      "Ġshoulder": 8545,
      "Ġrall": 8546,
      "Ġrank": 8547,
      "Ġrash": 8548,
      "Ġregain": 8549,
      "Ġbehaved": 8550,
      "Ġresound": 8551,
      "ĠEqu": 8552,
      "Ġoffers": 8553,
      "ĠLear": 8554,
      "Ġjaw": 8555,
      "Ġaccout": 8556,
      "Ġanyone": 8557,
      "gaged": 8558,
      "Ġattending": 8559,
      "Ġload": 8560,
      "Ġloving": 8561,
      "Ġincant": 8562,
      "Ġheadless": 8563,
      "Ġnecks": 8564,
      "Ġmerch": 8565,
      "Ġmercy": 8566,
      "Ġblade": 8567,
      "Ġcouldst": 8568,
      "Ġpurch": 8569,
      "ĠGandhara": 8570,
      "Ġtaketh": 8571,
      "Ġconditions": 8572,
      "Ġcertainty": 8573,
      ".\"'": 8574,
      "Ġevidence": 8575,
      "Ġexisted": 8576,
      "Ġvaried": 8577,
      "Ġsplendid": 8578,
      "Ġcareful": 8579,
      "Ġdifferently": 8580,
      "Ġfortitude": 8581,
      "Ġforgot": 8582,
      "ĠRec": 8583,
      "Ġgrandsires": 8584,
      "Ġshowering": 8585,
      "Ġcrusher": 8586,
      "Ġaston": 8587,
      "Ġcircumamb": 8588,
      "ĠIsana": 8589,
      "Ġincreasing": 8590,
      "Ġliberated": 8591,
      "Ġcensured": 8592,
      "ĠChandra": 8593,
      "Ġextend": 8594,
      "Ġrevive": 8595,
      "Ġtrusted": 8596,
      "Ġsystems": 8597,
      "Ġcorners": 8598,
      "Ġmelancholy": 8599,
      "Bhima": 8600,
      "Ġprogenitor": 8601,
      "Ġsteadiness": 8602,
      "ĠMandara": 8603,
      "ĠKekaya": 8604,
      "Ġconvey": 8605,
      "Ġgathering": 8606,
      "ongeth": 8607,
      "Ġaxe": 8608,
      "Ġeloquent": 8609,
      "Ġreceptacle": 8610,
      "Ġplatform": 8611,
      "Ġchallenging": 8612,
      "Ġprospect": 8613,
      "EN": 8614,
      "Of": 8615,
      "UM": 8616,
      "ege": 8617,
      "eath": 8618,
      "mas": 8619,
      "rana": 8620,
      "uated": 8621,
      "vement": 8622,
      "Ġahead": 8623,
      "Ġfanned": 8624,
      "Ġcous": 8625,
      "Ġinternal": 8626,
      "leth": 8627,
      "Ġgrown": 8628,
      "Ġna": 8629,
      "ldom": 8630,
      "verance": 8631,
      "Ġhealing": 8632,
      "ĠSain": 8633,
      "ĠSpe": 8634,
      "akest": 8635,
      "urbed": 8636,
      "Ġallig": 8637,
      "ĠKins": 8638,
      "ĠKacha": 8639,
      "ules": 8640,
      "Ġseldom": 8641,
      "Ġalarm": 8642,
      "ĠHa": 8643,
      "blem": 8644,
      "ĠMarich": 8645,
      "Ġchains": 8646,
      "Ġdistinguish": 8647,
      "Ġtherein": 8648,
      "igious": 8649,
      "Ġunin": 8650,
      "Ġagreed": 8651,
      "Ġagitation": 8652,
      "ĠNight": 8653,
      "Ġresour": 8654,
      "Ġlifeless": 8655,
      "ĠFoll": 8656,
      "Ġbegun": 8657,
      "ĠInc": 8658,
      "Ġmayest": 8659,
      "ĠJat": 8660,
      "olent": 8661,
      "Ġapply": 8662,
      "Ġappoint": 8663,
      "resses": 8664,
      "again": 8665,
      "Ġgrains": 8666,
      "Ġconsist": 8667,
      "ĠKshem": 8668,
      "Ġcompar": 8669,
      "Ġrespects": 8670,
      "Ġsmote": 8671,
      "Ġvowed": 8672,
      "Ġpleases": 8673,
      "Ġglor": 8674,
      "Ġdecre": 8675,
      "ĠAgain": 8676,
      "ĠAlways": 8677,
      "eshna": 8678,
      "Ġpeaceful": 8679,
      "Ġtrade": 8680,
      "Ġsciences": 8681,
      "Ġrestraint": 8682,
      "Ġsecl": 8683,
      "Ġacquisitions": 8684,
      "ĠSudakshina": 8685,
      "Ġlibation": 8686,
      "Ġnearly": 8687,
      "Ġapplauding": 8688,
      "ĠKalpa": 8689,
      "Ġpolit": 8690,
      "ĠVabh": 8691,
      "Ġgirls": 8692,
      "Ġworshippers": 8693,
      "Ġpurifying": 8694,
      "Ġthirsty": 8695,
      "Ġaimed": 8696,
      "Ġsustain": 8697,
      "Ġjudge": 8698,
      "Ġsubdue": 8699,
      "Ġfulfil": 8700,
      "ĠUsinara": 8701,
      "Ġrejoice": 8702,
      "ĠAjatas": 8703,
      "Ġpeacock": 8704,
      "ĠRichika": 8705,
      "ĠProtected": 8706,
      "Ġalighted": 8707,
      "Ġextinct": 8708,
      "ĠAchy": 8709,
      "Ġexcellence": 8710,
      "Ġrespons": 8711,
      "Ġneutral": 8712,
      "Ġscruple": 8713,
      "Ġintroduced": 8714,
      "tempered": 8715,
      "ĠSushena": 8716,
      "Ġkshatri": 8717,
      "Ġthieves": 8718,
      "Ġpropriety": 8719,
      "Ġmisfortune": 8720,
      "ograph": 8721,
      "ĠViswedevas": 8722,
      "Pro": 8723,
      "des": 8724,
      "iy": 8725,
      "lves": 8726,
      "mi": 8727,
      "uga": 8728,
      "ndhati": 8729,
      "isions": 8730,
      "Ġbill": 8731,
      "Ġbards": 8732,
      "esha": 8733,
      "Ġmud": 8734,
      "Ġdies": 8735,
      "Ġpowd": 8736,
      "roken": 8737,
      "Ġkn": 8738,
      "Ġallow": 8739,
      "ĠDiverse": 8740,
      "ivindhya": 8741,
      "Ġargum": 8742,
      "Ġselves": 8743,
      "oused": 8744,
      "ĠHigh": 8745,
      "ruva": 8746,
      "Ġprosper": 8747,
      "ĠManas": 8748,
      "Ġcompe": 8749,
      "ĠWord": 8750,
      "Ġobeyed": 8751,
      "Ġdozen": 8752,
      "Ġunworthy": 8753,
      "Ġsphere": 8754,
      "Ġsoci": 8755,
      "Ġforesight": 8756,
      "Ġactor": 8757,
      "Ġresounded": 8758,
      "Ġresounding": 8759,
      "ĠLiving": 8760,
      "ĠLoud": 8761,
      "ĠCome": 8762,
      "Ġrode": 8763,
      "enses": 8764,
      "Ġbegged": 8765,
      "Ġunderwent": 8766,
      "Ġovercoming": 8767,
      "uparna": 8768,
      "ĠJalas": 8769,
      "ĠThereat": 8770,
      "yasringa": 8771,
      "Ġdevoured": 8772,
      "ushed": 8773,
      "Ġblows": 8774,
      "Ġconsent": 8775,
      "Ġconsisted": 8776,
      "trained": 8777,
      "Ġbetaken": 8778,
      "Ġrespecting": 8779,
      "Ġassisted": 8780,
      "Ġyourself": 8781,
      "Ġfullest": 8782,
      "Ġenjoyeth": 8783,
      "Ġsurv": 8784,
      "Ġbelongeth": 8785,
      "Ġinfamy": 8786,
      "Ġruin": 8787,
      "Ġcounted": 8788,
      "Ġassemblies": 8789,
      "Ġutterly": 8790,
      "Ġcalc": 8791,
      "Ġdried": 8792,
      "ĠSamadhi": 8793,
      "Ġcontrolling": 8794,
      "ĠSankha": 8795,
      "Ġrelative": 8796,
      "Ġcompassionate": 8797,
      "Ġlovely": 8798,
      "going": 8799,
      "Ġstrict": 8800,
      "ĠVaik": 8801,
      "Ġruns": 8802,
      "ĠDushmanta": 8803,
      "Ġhardly": 8804,
      "Ġparaly": 8805,
      "Ġpraiseworthy": 8806,
      "Ġviolent": 8807,
      "Ġteacher": 8808,
      "Ġcurrents": 8809,
      "ĠNaim": 8810,
      "ĠVrihannala": 8811,
      "Ġintentions": 8812,
      "ĠAndhaka": 8813,
      "Ġdishon": 8814,
      "ĠSumitra": 8815,
      "Ġinstrumental": 8816,
      "Ġexclam": 8817,
      "Ġdevelop": 8818,
      "Ġextinction": 8819,
      "Ġcounteract": 8820,
      "Ġdeserted": 8821,
      "ĠKosala": 8822,
      "Ġscientific": 8823,
      "Ġmelodious": 8824,
      "ĠPrithu": 8825,
      "looking": 8826,
      "Ġdischarging": 8827,
      "Ġunacquainted": 8828,
      "Ġpilgrimage": 8829,
      "Here": 8830,
      "IR": 8831,
      "IT": 8832,
      "ON": 8833,
      "bb": 8834,
      "da": 8835,
      "fif": 8836,
      "lika": 8837,
      "pur": 8838,
      "ule": 8839,
      "vest": 8840,
      "three": 8841,
      "Ġthreat": 8842,
      "rets": 8843,
      "Ġsort": 8844,
      "Ġsank": 8845,
      "Ġsorts": 8846,
      "Ġwins": 8847,
      "oned": 8848,
      "Ġfences": 8849,
      "anj": 8850,
      "anse": 8851,
      "Ġinev": 8852,
      "Ġbefall": 8853,
      "cel": 8854,
      "Ġgri": 8855,
      "Ġgame": 8856,
      "Ġgets": 8857,
      "ĠAre": 8858,
      "strings": 8859,
      "akara": 8860,
      "uture": 8861,
      "Ġstakes": 8862,
      "Ġalarmed": 8863,
      "astras": 8864,
      "Ġdisgra": 8865,
      "ledged": 8866,
      "Ġadm": 8867,
      "Ġunintellig": 8868,
      "Ġranger": 8869,
      "Ġregaining": 8870,
      "Ġoffend": 8871,
      "Ġriven": 8872,
      "Ġride": 8873,
      "ĠTrita": 8874,
      "Ġaccents": 8875,
      "Ġaccession": 8876,
      "Ġquaff": 8877,
      "Ġowner": 8878,
      "ĠUra": 8879,
      "Ġflood": 8880,
      "Ġdevour": 8881,
      "Ġdevouring": 8882,
      "Ġwealthy": 8883,
      "untala": 8884,
      "Ġpractises": 8885,
      "Ġskilful": 8886,
      "Ġwherever": 8887,
      "Ġrecitations": 8888,
      "Ġguile": 8889,
      "Ġsuns": 8890,
      "Ġolden": 8891,
      "Ġjoyous": 8892,
      "fty": 8893,
      "Ġvirtuously": 8894,
      "Ġexpanse": 8895,
      "Ġsupposed": 8896,
      "Ġ38": 8897,
      "Ġfreeing": 8898,
      "Ġwordy": 8899,
      "Ġaware": 8900,
      "Ġabstained": 8901,
      "Ġsharpness": 8902,
      "Ġburns": 8903,
      "Ġgarment": 8904,
      "Ġrainy": 8905,
      "ĠSudhan": 8906,
      "Ġnarrow": 8907,
      "Ġpenetrate": 8908,
      "Ġexertions": 8909,
      "Ġcapacity": 8910,
      "Ġagitating": 8911,
      "Ġtreatment": 8912,
      "Ġprocrast": 8913,
      "conversant": 8914,
      "Ġunderstandings": 8915,
      "Ġwitnessing": 8916,
      "Ġfisher": 8917,
      "Ġeduc": 8918,
      "Ġrevived": 8919,
      "Ġheedless": 8920,
      "Ġobligation": 8921,
      "Ġunrighteously": 8922,
      "Ġcontempt": 8923,
      "ĠSaivya": 8924,
      "Ġmaintained": 8925,
      "Ġrejoicing": 8926,
      "Ġquarrels": 8927,
      "Ġhunting": 8928,
      "Ġwritten": 8929,
      "ĠKumara": 8930,
      "Ġeagerly": 8931,
      "ĠRagh": 8932,
      "ĠRituparna": 8933,
      "Ġgarden": 8934,
      "Ġcryst": 8935,
      "Ġenhancer": 8936,
      "Ġremarked": 8937,
      "Ġlabour": 8938,
      "Ġpupils": 8939,
      "Ġinitiation": 8940,
      "Ġimpressions": 8941,
      "Ġthrice": 8942,
      "Ġsorely": 8943,
      "Ġfaculties": 8944,
      "ĠBaladeva": 8945,
      "Ġdegree": 8946,
      "Ġtrickling": 8947,
      "ĠAbstention": 8948,
      "ĠAbandoning": 8949,
      "Ġcrematorium": 8950,
      "Ġpalmyra": 8951,
      "Ġdazzling": 8952,
      "destroying": 8953,
      "Ġjaws": 8954,
      "ĠAjatasatru": 8955,
      "ĠJalasandha": 8956,
      "Ag": 8957,
      "LA": 8958,
      "bre": 8959,
      "bor": 8960,
      "beh": 8961,
      "hya": 8962,
      "having": 8963,
      "lo": 8964,
      "pire": 8965,
      "uv": 8966,
      "uity": 8967,
      "urious": 8968,
      "Ġathe": 8969,
      "inc": 8970,
      "Ġtheory": 8971,
      "Ġwrest": 8972,
      "Ġbott": 8973,
      "Ġtearing": 8974,
      "arva": 8975,
      "Ġdur": 8976,
      "Ġple": 8977,
      "rama": 8978,
      "leg": 8979,
      "ayam": 8980,
      "irtha": 8981,
      "ĠSn": 8982,
      "ĠSabha": 8983,
      "amo": 8984,
      "amadeva": 8985,
      "Ġforced": 8986,
      "Ġshaken": 8987,
      "urm": 8988,
      "ivat": 8989,
      "ĠPast": 8990,
      "Ġsongs": 8991,
      "ĠVib": 8992,
      "ĠMitra": 8993,
      "ĠRet": 8994,
      "Ġfold": 8995,
      "ĠWomen": 8996,
      "Ġobe": 8997,
      "Ġobsequ": 8998,
      "Ġraging": 8999,
      "ears": 9000,
      "Ġlevel": 9001,
      "ĠPandya": 9002,
      "Ġjavel": 9003,
      "Ġrolling": 9004,
      "Ġcontending": 9005,
      "eping": 9006,
      "Ġapprehension": 9007,
      "Ġgrateful": 9008,
      "ervest": 9009,
      "Ġillusions": 9010,
      "Ġhastily": 9011,
      "Ġrelie": 9012,
      "bhu": 9013,
      "covered": 9014,
      "Ġpluck": 9015,
      "Ġsmite": 9016,
      "Ġobsc": 9017,
      "akening": 9018,
      "Ġsuperv": 9019,
      "Ġutterers": 9020,
      "Ġexpounded": 9021,
      "Ġexpanded": 9022,
      "Ġfirmness": 9023,
      "Ġconfused": 9024,
      "Ġbenev": 9025,
      "Ġsolid": 9026,
      "Ġdrive": 9027,
      "Ġyoungest": 9028,
      "Ġsecure": 9029,
      "Ġesteem": 9030,
      "Ġretreated": 9031,
      "Ġhyp": 9032,
      "Ġsubjugator": 9033,
      "ĠApsara": 9034,
      "Ġwanting": 9035,
      "Ġparro": 9036,
      "ĠYadus": 9037,
      "Ġerrone": 9038,
      "Ġsufferings": 9039,
      "ĠDurvasa": 9040,
      "Ġexamination": 9041,
      "Ġpiteous": 9042,
      "ĠCont": 9043,
      "Ġmildness": 9044,
      "Ġfleetness": 9045,
      "ĠSamvara": 9046,
      "Ġlapis": 9047,
      "Ġpervading": 9048,
      "Ġperseverance": 9049,
      "Ġimmortals": 9050,
      "ological": 9051,
      "Ġpictures": 9052,
      "ĠYavak": 9053,
      "Ġvegetables": 9054,
      "Ġenhanced": 9055,
      "Ġpupil": 9056,
      "Ġtotal": 9057,
      "Ġneglect": 9058,
      "Ġprimeval": 9059,
      "advala": 9060,
      "Ġgreeted": 9061,
      "Ġluxury": 9062,
[...]
